{
  "version": "1.0",
  "truncation": null,
  "padding": null,
  "added_tokens": [
    {
      "id": 0,
      "content": "<s>",
      "single_word": false,
      "lstrip": false,
      "rstrip": false,
      "normalized": false,
      "special": true
    },
    {
      "id": 1,
      "content": "<pad>",
      "single_word": false,
      "lstrip": false,
      "rstrip": false,
      "normalized": false,
      "special": true
    },
    {
      "id": 2,
      "content": "</s>",
      "single_word": false,
      "lstrip": false,
      "rstrip": false,
      "normalized": false,
      "special": true
    },
    {
      "id": 3,
      "content": "<unk>",
      "single_word": false,
      "lstrip": false,
      "rstrip": false,
      "normalized": false,
      "special": true
    },
    {
      "id": 4,
      "content": "eng_Latn",
      "single_word": true,
      "lstrip": false,
      "rstrip": true,
      "normalized": false,
      "special": false
    },
    {
      "id": 15,
      "content": "hin_Deva",
      "single_word": true,
      "lstrip": false,
      "rstrip": true,
      "normalized": false,
      "special": false
    },
    {
      "id": 17,
      "content": "ben_Beng",
      "single_word": true,
      "lstrip": false,
      "rstrip": true,
      "normalized": false,
      "special": false
    },
    {
      "id": 19,
      "content": "mal_Mlym",
      "single_word": true,
      "lstrip": false,
      "rstrip": true,
      "normalized": false,
      "special": false
    },
    {
      "id": 20,
      "content": "kan_Knda",
      "single_word": true,
      "lstrip": false,
      "rstrip": true,
      "normalized": false,
      "special": false
    },
    {
      "id": 21,
      "content": "tel_Telu",
      "single_word": true,
      "lstrip": false,
      "rstrip": true,
      "normalized": false,
      "special": false
    },
    {
      "id": 27,
      "content": "tam_Taml",
      "single_word": true,
      "lstrip": false,
      "rstrip": true,
      "normalized": false,
      "special": false
    },
    {
      "id": 28,
      "content": "guj_Gujr",
      "single_word": true,
      "lstrip": false,
      "rstrip": true,
      "normalized": false,
      "special": false
    },
    {
      "id": 29,
      "content": "mar_Deva",
      "single_word": true,
      "lstrip": false,
      "rstrip": true,
      "normalized": false,
      "special": false
    },
    {
      "id": 46,
      "content": "pan_Guru",
      "single_word": true,
      "lstrip": false,
      "rstrip": true,
      "normalized": false,
      "special": false
    },
    {
      "id": 68,
      "content": "urd_Arab",
      "single_word": true,
      "lstrip": false,
      "rstrip": true,
      "normalized": false,
      "special": false
    },
    {
      "id": 69,
      "content": "ory_Orya",
      "single_word": true,
      "lstrip": false,
      "rstrip": true,
      "normalized": false,
      "special": false
    },
    {
      "id": 152,
      "content": "snd_Arab",
      "single_word": true,
      "lstrip": false,
      "rstrip": true,
      "normalized": false,
      "special": false
    },
    {
      "id": 190,
      "content": "npi_Deva",
      "single_word": true,
      "lstrip": false,
      "rstrip": true,
      "normalized": false,
      "special": false
    },
    {
      "id": 221,
      "content": "asm_Beng",
      "single_word": true,
      "lstrip": false,
      "rstrip": true,
      "normalized": false,
      "special": false
    },
    {
      "id": 911,
      "content": "mni_Beng",
      "single_word": true,
      "lstrip": false,
      "rstrip": true,
      "normalized": false,
      "special": false
    },
    {
      "id": 1313,
      "content": "san_Deva",
      "single_word": true,
      "lstrip": false,
      "rstrip": true,
      "normalized": false,
      "special": false
    },
    {
      "id": 1800,
      "content": "kas_Deva",
      "single_word": true,
      "lstrip": false,
      "rstrip": true,
      "normalized": false,
      "special": false
    },
    {
      "id": 2531,
      "content": "kas_Arab",
      "single_word": true,
      "lstrip": false,
      "rstrip": true,
      "normalized": false,
      "special": false
    },
    {
      "id": 2913,
      "content": "brx_Deva",
      "single_word": true,
      "lstrip": false,
      "rstrip": true,
      "normalized": false,
      "special": false
    },
    {
      "id": 3479,
      "content": "gom_Deva",
      "single_word": true,
      "lstrip": false,
      "rstrip": true,
      "normalized": false,
      "special": false
    },
    {
      "id": 3970,
      "content": "mai_Deva",
      "single_word": true,
      "lstrip": false,
      "rstrip": true,
      "normalized": false,
      "special": false
    },
    {
      "id": 6603,
      "content": "mni_Mtei",
      "single_word": true,
      "lstrip": false,
      "rstrip": true,
      "normalized": false,
      "special": false
    },
    {
      "id": 12511,
      "content": "doi_Deva",
      "single_word": true,
      "lstrip": false,
      "rstrip": true,
      "normalized": false,
      "special": false
    },
    {
      "id": 14389,
      "content": "sat_Olck",
      "single_word": true,
      "lstrip": false,
      "rstrip": true,
      "normalized": false,
      "special": false
    },
    {
      "id": 23275,
      "content": "snd_Deva",
      "single_word": true,
      "lstrip": false,
      "rstrip": true,
      "normalized": false,
      "special": false
    },
    {
      "id": 32156,
      "content": "unr_Deva",
      "single_word": true,
      "lstrip": false,
      "rstrip": true,
      "normalized": false,
      "special": false
    },
    {
      "id": 32157,
      "content": "gon_Deva",
      "single_word": true,
      "lstrip": false,
      "rstrip": true,
      "normalized": false,
      "special": false
    },
    {
      "id": 32158,
      "content": "awa_Deva",
      "single_word": true,
      "lstrip": false,
      "rstrip": true,
      "normalized": false,
      "special": false
    },
    {
      "id": 32159,
      "content": "bho_Deva",
      "single_word": true,
      "lstrip": false,
      "rstrip": true,
      "normalized": false,
      "special": false
    },
    {
      "id": 32160,
      "content": "hne_Deva",
      "single_word": true,
      "lstrip": false,
      "rstrip": true,
      "normalized": false,
      "special": false
    },
    {
      "id": 32161,
      "content": "mag_Deva",
      "single_word": true,
      "lstrip": false,
      "rstrip": true,
      "normalized": false,
      "special": false
    },
    {
      "id": 32162,
      "content": "lus_Latn",
      "single_word": true,
      "lstrip": false,
      "rstrip": true,
      "normalized": false,
      "special": false
    },
    {
      "id": 32163,
      "content": "kha_Latn",
      "single_word": true,
      "lstrip": false,
      "rstrip": true,
      "normalized": false,
      "special": false
    }
  ],
  "normalizer": {
    "type": "Sequence",
    "normalizers": [
      {
        "type": "NFKC"
      },
      {
        "type": "Replace",
        "pattern": {
          "Regex": " {2,}"
        },
        "content": " "
      }
    ]
  },
  "pre_tokenizer": {
    "type": "Metaspace",
    "replacement": "▁",
    "prepend_scheme": "always",
    "split": true
  },
  "post_processor": {
    "type": "TemplateProcessing",
    "single": [
      {
        "Sequence": {
          "id": "A",
          "type_id": 0
        }
      },
      {
        "SpecialToken": {
          "id": "</s>",
          "type_id": 0
        }
      }
    ],
    "pair": [
      {
        "Sequence": {
          "id": "A",
          "type_id": 0
        }
      },
      {
        "Sequence": {
          "id": "B",
          "type_id": 1
        }
      }
    ],
    "special_tokens": {
      "</s>": {
        "id": "</s>",
        "ids": [
          2
        ],
        "tokens": [
          "</s>"
        ]
      }
    }
  },
  "decoder": {
    "type": "Metaspace",
    "replacement": "▁",
    "prepend_scheme": "always",
    "split": true
  },
  "model": {
    "type": "BPE",
    "dropout": null,
    "unk_token": "<unk>",
    "continuing_subword_prefix": null,
    "end_of_word_suffix": null,
    "fuse_unk": false,
    "byte_fallback": false,
    "ignore_merges": false,
    "vocab": {
      "<s>": 0,
      "<pad>": 1,
      "</s>": 2,
      "<unk>": 3,
      "eng_Latn": 4,
      "▁.": 5,
      "▁the": 6,
      "▁,": 7,
      "▁of": 8,
      "▁to": 9,
      "▁and": 10,
      "▁in": 11,
      "▁\"": 12,
      "▁is": 13,
      "▁a": 14,
      "hin_Deva": 15,
      "▁'": 16,
      "ben_Beng": 17,
      "▁The": 18,
      "mal_Mlym": 19,
      "kan_Knda": 20,
      "tel_Telu": 21,
      "▁for": 22,
      "s": 23,
      "▁I": 24,
      "▁it": 25,
      "▁that": 26,
      "tam_Taml": 27,
      "guj_Gujr": 28,
      "mar_Deva": 29,
      "▁are": 30,
      "▁you": 31,
      "▁be": 32,
      "▁was": 33,
      "▁on": 34,
      "▁?": 35,
      "▁this": 36,
      "▁have": 37,
      "▁But": 38,
      "▁not": 39,
      "▁with": 40,
      "▁has": 41,
      "▁will": 42,
      "-": 43,
      "▁And": 44,
      "t": 45,
      "pan_Guru": 46,
      "▁as": 47,
      "▁at": 48,
      "▁by": 49,
      "▁from": 50,
      "▁can": 51,
      "▁)": 52,
      "▁(": 53,
      "▁also": 54,
      "▁A": 55,
      "▁:": 56,
      "▁been": 57,
      "▁It": 58,
      "▁he": 59,
      "▁all": 60,
      "▁an": 61,
      "▁He": 62,
      "▁your": 63,
      "▁or": 64,
      "▁said": 65,
      "▁were": 66,
      "▁This": 67,
      "urd_Arab": 68,
      "ory_Orya": 69,
      "▁do": 70,
      "▁we": 71,
      "▁India": 72,
      "▁his": 73,
      "▁!": 74,
      "▁one": 75,
      "▁there": 76,
      "▁they": 77,
      "▁time": 78,
      "▁</dnt>": 79,
      "▁<dnt>": 80,
      "▁about": 81,
      "▁people": 82,
      "▁had": 83,
      "▁what": 84,
      ".": 85,
      "▁their": 86,
      "▁All": 87,
      "▁them": 88,
      "▁We": 89,
      "▁more": 90,
      "▁very": 91,
      "▁In": 92,
      "▁no": 93,
      "▁which": 94,
      "▁other": 95,
      "▁There": 96,
      "▁first": 97,
      "▁so": 98,
      "▁two": 99,
      "▁You": 100,
      "▁my": 101,
      "▁me": 102,
      "▁-": 103,
      "▁but": 104,
      "▁who": 105,
      "▁out": 106,
      "▁her": 107,
      "▁know": 108,
      "▁Minister": 109,
      "▁any": 110,
      "▁police": 111,
      "▁up": 112,
      "▁don": 113,
      "▁should": 114,
      "▁They": 115,
      "▁What": 116,
      "▁its": 117,
      "▁new": 118,
      "▁like": 119,
      "▁these": 120,
      "▁government": 121,
      "▁him": 122,
      "▁our": 123,
      "▁only": 124,
      "▁over": 125,
      "▁how": 126,
      "▁need": 127,
      "▁good": 128,
      "▁here": 129,
      "▁than": 130,
      "▁day": 131,
      "▁some": 132,
      "▁after": 133,
      "m": 134,
      "▁then": 135,
      "▁would": 136,
      "▁many": 137,
      "▁get": 138,
      "▁case": 139,
      "▁well": 140,
      "ing": 141,
      "▁work": 142,
      "▁just": 143,
      "▁world": 144,
      "▁if": 145,
      "▁into": 146,
      "▁film": 147,
      "▁life": 148,
      "▁Indian": 149,
      "▁So": 150,
      "▁against": 151,
      "snd_Arab": 152,
      "▁most": 153,
      "▁such": 154,
      "▁did": 155,
      "▁Are": 156,
      "▁country": 157,
      "▁years": 158,
      "▁At": 159,
      "▁want": 160,
      "▁water": 161,
      "▁As": 162,
      "▁she": 163,
      "re": 164,
      "▁...": 165,
      "▁take": 166,
      "▁when": 167,
      "▁BJP": 168,
      "▁state": 169,
      "▁made": 170,
      "▁too": 171,
      "▁She": 172,
      "▁being": 173,
      "▁going": 174,
      "▁If": 175,
      "▁am": 176,
      "▁us": 177,
      "ed": 178,
      "▁After": 179,
      "▁three": 180,
      "▁make": 181,
      "▁much": 182,
      "▁same": 183,
      "▁use": 184,
      "▁Singh": 185,
      "▁really": 186,
      "▁different": 187,
      "▁see": 188,
      "▁between": 189,
      "npi_Deva": 190,
      "▁important": 191,
      "▁That": 192,
      "▁way": 193,
      "▁Congress": 194,
      "▁year": 195,
      "▁under": 196,
      "▁go": 197,
      "▁Police": 198,
      "▁number": 199,
      "▁family": 200,
      "▁lot": 201,
      "▁could": 202,
      "▁;": 203,
      "▁1": 204,
      "▁place": 205,
      "▁help": 206,
      "▁However": 207,
      "▁Modi": 208,
      "▁think": 209,
      "▁used": 210,
      "▁children": 211,
      "▁2": 212,
      "▁does": 213,
      "▁right": 214,
      "▁home": 215,
      "▁Delhi": 216,
      "▁per": 217,
      "▁never": 218,
      "▁Rs": 219,
      "▁love": 220,
      "asm_Beng": 221,
      "▁must": 222,
      "▁back": 223,
      "▁come": 224,
      "▁information": 225,
      "▁didn": 226,
      "▁days": 227,
      "▁How": 228,
      "▁before": 229,
      "▁where": 230,
      "▁last": 231,
      "▁during": 232,
      "▁Prime": 233,
      "▁part": 234,
      "▁still": 235,
      "▁taken": 236,
      "▁both": 237,
      "▁few": 238,
      "▁Both": 239,
      "ve": 240,
      "▁through": 241,
      "▁long": 242,
      "▁B": 243,
      "▁even": 244,
      "▁10": 245,
      "▁may": 246,
      "▁every": 247,
      "▁great": 248,
      "er": 249,
      "▁those": 250,
      "▁Add": 251,
      "▁/": 252,
      "▁body": 253,
      "▁say": 254,
      "▁No": 255,
      "▁now": 256,
      "▁women": 257,
      "▁things": 258,
      "▁S": 259,
      "▁incident": 260,
      "▁each": 261,
      "a": 262,
      "▁3": 263,
      "th": 264,
      "▁why": 265,
      "▁New": 266,
      "▁best": 267,
      "▁health": 268,
      "in": 269,
      "▁always": 270,
      "▁For": 271,
      "▁social": 272,
      "▁An": 273,
      "▁done": 274,
      "▁while": 275,
      "▁yet": 276,
      "▁": 277,
      "al": 278,
      "▁won": 279,
      "▁available": 280,
      "▁name": 281,
      "▁5": 282,
      "ll": 283,
      "▁D": 284,
      "▁P": 285,
      "▁Pakistan": 286,
      "▁God": 287,
      "▁Chief": 288,
      "▁again": 289,
      "ly": 290,
      "▁high": 291,
      "▁Also": 292,
      "▁media": 293,
      "▁President": 294,
      "▁got": 295,
      "▁next": 296,
      "es": 297,
      "▁second": 298,
      "▁present": 299,
      "y": 300,
      "▁because": 301,
      "▁thing": 302,
      "▁problem": 303,
      "▁Because": 304,
      "i": 305,
      "▁started": 306,
      "▁hospital": 307,
      "▁4": 308,
      "▁another": 309,
      "▁team": 310,
      "▁video": 311,
      "▁C": 312,
      "▁K": 313,
      "▁party": 314,
      "▁accused": 315,
      "▁including": 316,
      "▁T": 317,
      "▁own": 318,
      "▁several": 319,
      "▁man": 320,
      "▁person": 321,
      "▁around": 322,
      "▁change": 323,
      "▁took": 324,
      "▁students": 325,
      "▁business": 326,
      "▁look": 327,
      "S": 328,
      "▁died": 329,
      "h": 330,
      "▁down": 331,
      "▁Do": 332,
      "▁arrested": 333,
      "▁given": 334,
      "▁company": 335,
      "an": 336,
      "▁money": 337,
      "▁something": 338,
      "▁On": 339,
      "▁four": 340,
      "ers": 341,
      "▁found": 342,
      "▁end": 343,
      "▁US": 344,
      "▁find": 345,
      "▁others": 346,
      "▁system": 347,
      "▁His": 348,
      "▁N": 349,
      "▁Khan": 350,
      "▁Why": 351,
      "▁city": 352,
      "▁meeting": 353,
      "▁called": 354,
      "▁times": 355,
      "▁give": 356,
      "▁seen": 357,
      "▁free": 358,
      "▁injured": 359,
      "▁house": 360,
      "▁easy": 361,
      "▁My": 362,
      "▁later": 363,
      "▁doesn": 364,
      "ar": 365,
      "▁possible": 366,
      "▁registered": 367,
      "▁today": 368,
      "o": 369,
      "▁State": 370,
      "▁movie": 371,
      "▁United": 372,
      "▁countries": 373,
      "▁small": 374,
      "▁area": 375,
      "▁question": 376,
      "▁World": 377,
      "▁least": 378,
      "▁death": 379,
      "▁food": 380,
      "▁matter": 381,
      "▁Narendra": 382,
      "▁situation": 383,
      "▁already": 384,
      "▁L": 385,
      "▁court": 386,
      "▁set": 387,
      "▁child": 388,
      "▁20": 389,
      "▁minister": 390,
      "▁better": 391,
      "▁happened": 392,
      "▁far": 393,
      "▁came": 394,
      "▁since": 395,
      "▁Gandhi": 396,
      ":": 397,
      "▁cases": 398,
      "▁anything": 399,
      "▁These": 400,
      "▁soon": 401,
      "▁Any": 402,
      "▁doing": 403,
      "▁National": 404,
      "▁China": 405,
      "▁&": 406,
      "▁working": 407,
      "▁Be": 408,
      "▁off": 409,
      "▁G": 410,
      "▁power": 411,
      "▁due": 412,
      "▁F": 413,
      "▁When": 414,
      "▁process": 415,
      "d": 416,
      "▁According": 417,
      "▁woman": 418,
      "able": 419,
      "▁decision": 420,
      "▁without": 421,
      "▁members": 422,
      "▁start": 423,
      "▁killed": 424,
      "▁post": 425,
      "▁known": 426,
      "▁car": 427,
      "▁following": 428,
      "▁U": 429,
      "▁five": 430,
      "▁One": 431,
      "▁district": 432,
      "▁become": 433,
      "▁asked": 434,
      "▁Pradesh": 435,
      "▁went": 436,
      "▁isn": 437,
      "▁mother": 438,
      "e": 439,
      "▁together": 440,
      "am": 441,
      "▁father": 442,
      "▁Mumbai": 443,
      "▁support": 444,
      "▁Government": 445,
      "▁school": 446,
      "▁held": 447,
      "▁special": 448,
      "▁%": 449,
      "▁s": 450,
      "▁example": 451,
      "▁M": 452,
      "▁order": 453,
      "▁6": 454,
      "ate": 455,
      "▁result": 456,
      "▁15": 457,
      "▁Court": 458,
      "▁various": 459,
      "n": 460,
      "▁$": 461,
      "▁8": 462,
      "▁age": 463,
      "▁chief": 464,
      "▁understand": 465,
      "▁story": 466,
      "▁Don": 467,
      "▁away": 468,
      "▁nothing": 469,
      "▁States": 470,
      "▁issue": 471,
      "▁big": 472,
      "▁large": 473,
      "▁among": 474,
      "▁little": 475,
      "▁everything": 476,
      "▁R": 477,
      "as": 478,
      "▁Kumar": 479,
      "▁cannot": 480,
      "▁role": 481,
      "▁data": 482,
      "▁development": 483,
      "▁spot": 484,
      "▁live": 485,
      "▁true": 486,
      "D": 487,
      "▁12": 488,
      "▁To": 489,
      "▁president": 490,
      "u": 491,
      "▁action": 492,
      "▁public": 493,
      "▁problems": 494,
      "▁treatment": 495,
      "▁play": 496,
      "▁happy": 497,
      "▁phone": 498,
      "▁sure": 499,
      "▁son": 500,
      "▁c": 501,
      "▁able": 502,
      "ation": 503,
      "▁questions": 504,
      "▁wife": 505,
      "▁hard": 506,
      "p": 507,
      "▁i": 508,
      "▁point": 509,
      "▁experience": 510,
      "▁Union": 511,
      "▁V": 512,
      "▁service": 513,
      "▁happen": 514,
      "▁says": 515,
      "▁game": 516,
      "ic": 517,
      "▁former": 518,
      "▁7": 519,
      "▁million": 520,
      "▁30": 521,
      "▁months": 522,
      "▁online": 523,
      "▁might": 524,
      "▁friends": 525,
      "▁PM": 526,
      "▁services": 527,
      "▁told": 528,
      "▁H": 529,
      "▁Many": 530,
      "▁J": 531,
      "▁night": 532,
      "at": 533,
      "▁face": 534,
      "▁across": 535,
      "▁list": 536,
      "en": 537,
      "▁Then": 538,
      "▁Is": 539,
      "▁currently": 540,
      "▁answer": 541,
      "▁book": 542,
      "▁everyone": 543,
      "b": 544,
      "▁men": 545,
      "▁wasn": 546,
      "▁needs": 547,
      "▁form": 548,
      "▁news": 549,
      "▁keep": 550,
      "▁read": 551,
      "▁law": 552,
      "▁third": 553,
      "▁using": 554,
      "▁old": 555,
      "▁further": 556,
      "▁necessary": 557,
      "▁believe": 558,
      "is": 559,
      "▁People": 560,
      "▁future": 561,
      "▁market": 562,
      "▁products": 563,
      "▁p": 564,
      "▁crore": 565,
      "▁leader": 566,
      "▁tell": 567,
      "▁security": 568,
      "▁Some": 569,
      "▁reason": 570,
      "▁price": 571,
      "▁real": 572,
      "▁main": 573,
      "▁Now": 574,
      "▁history": 575,
      "▁heart": 576,
      "▁week": 577,
      "▁political": 578,
      "▁South": 579,
      "▁left": 580,
      "▁means": 581,
      "▁cent": 582,
      "▁human": 583,
      "▁investigation": 584,
      "▁report": 585,
      "▁quite": 586,
      "▁sent": 587,
      "▁course": 588,
      "▁100": 589,
      "▁include": 590,
      "▁within": 591,
      "▁official": 592,
      "or": 593,
      "▁often": 594,
      "▁Who": 595,
      "▁t": 596,
      "▁fire": 597,
      "▁job": 598,
      "▁top": 599,
      "▁open": 600,
      "▁actually": 601,
      "▁lakh": 602,
      "c": 603,
      "▁[": 604,
      "▁announced": 605,
      "▁]": 606,
      "▁states": 607,
      "▁website": 608,
      "ur": 609,
      "▁event": 610,
      "▁oil": 611,
      "▁let": 612,
      "▁disease": 613,
      "▁until": 614,
      "▁total": 615,
      "▁along": 616,
      "▁E": 617,
      "▁Bank": 618,
      "ah": 619,
      "▁however": 620,
      "▁care": 621,
      "▁national": 622,
      "▁released": 623,
      "▁shall": 624,
      "▁Shah": 625,
      "▁added": 626,
      "▁50": 627,
      "▁month": 628,
      "B": 629,
      "▁simple": 630,
      "▁f": 631,
      "on": 632,
      "▁kind": 633,
      "▁provide": 634,
      "▁blood": 635,
      "▁farmers": 636,
      "▁feel": 637,
      "▁ever": 638,
      "▁put": 639,
      "▁difficult": 640,
      "▁W": 641,
      "▁Could": 642,
      "▁leaders": 643,
      "▁control": 644,
      "▁account": 645,
      "ated": 646,
      "▁girl": 647,
      "it": 648,
      "▁mind": 649,
      "▁ready": 650,
      "▁thought": 651,
      "▁d": 652,
      "M": 653,
      "▁show": 654,
      "▁comes": 655,
      "▁based": 656,
      "▁education": 657,
      "▁areas": 658,
      "▁level": 659,
      "▁increase": 660,
      "▁try": 661,
      "▁group": 662,
      "▁cost": 663,
      "▁major": 664,
      "ant": 665,
      "ad": 666,
      "▁parents": 667,
      "▁University": 668,
      "▁getting": 669,
      "▁attack": 670,
      "▁making": 671,
      "▁enough": 672,
      "▁common": 673,
      "▁hand": 674,
      "▁Rahul": 675,
      "▁full": 676,
      "▁whole": 677,
      "▁11": 678,
      "▁music": 679,
      "▁looking": 680,
      "l": 681,
      "▁lost": 682,
      "▁project": 683,
      "▁local": 684,
      "▁coming": 685,
      "▁English": 686,
      "▁required": 687,
      "▁Kashmir": 688,
      "G": 689,
      "ia": 690,
      "▁lead": 691,
      "▁reported": 692,
      "▁room": 693,
      "▁lives": 694,
      "▁Punjab": 695,
      "▁Here": 696,
      "▁talk": 697,
      "▁period": 698,
      "▁Tamil": 699,
      "▁provided": 700,
      "▁air": 701,
      "▁international": 702,
      "▁past": 703,
      "▁received": 704,
      "▁b": 705,
      "▁actor": 706,
      "▁became": 707,
      "▁results": 708,
      "▁once": 709,
      "▁head": 710,
      "▁Bollywood": 711,
      "I": 712,
      "▁series": 713,
      "▁percent": 714,
      "▁taking": 715,
      "▁quality": 716,
      "▁14": 717,
      "▁elections": 718,
      "▁personal": 719,
      "▁Let": 720,
      "ies": 721,
      "▁pay": 722,
      "▁medical": 723,
      "▁wrong": 724,
      "el": 725,
      "▁win": 726,
      "▁cause": 727,
      "▁side": 728,
      "▁beautiful": 729,
      "▁l": 730,
      "▁18": 731,
      "▁Day": 732,
      "il": 733,
      "▁Kapoor": 734,
      "▁9": 735,
      "▁continue": 736,
      "▁Dr": 737,
      "▁changed": 738,
      "%": 739,
      "▁else": 740,
      "▁officials": 741,
      "▁Maharashtra": 742,
      "▁visit": 743,
      "▁daughter": 744,
      "▁e": 745,
      "▁less": 746,
      "▁fact": 747,
      "▁played": 748,
      "▁works": 749,
      "▁m": 750,
      "▁plan": 751,
      "▁Ministry": 752,
      "2": 753,
      "▁16": 754,
      "▁moment": 755,
      "k": 756,
      "▁filed": 757,
      "▁having": 758,
      "▁needed": 759,
      "▁West": 760,
      "▁doctor": 761,
      "▁road": 762,
      "▁condition": 763,
      "▁25": 764,
      "▁Two": 765,
      "▁language": 766,
      "▁persons": 767,
      "▁land": 768,
      "T": 769,
      "▁either": 770,
      "▁popular": 771,
      "g": 772,
      "▁issues": 773,
      "P": 774,
      "▁complaint": 775,
      "▁largest": 776,
      "▁test": 777,
      "▁regard": 778,
      "▁statement": 779,
      "▁Act": 780,
      "▁Av": 781,
      "▁hours": 782,
      "▁private": 783,
      "▁began": 784,
      "▁Sharma": 785,
      "▁study": 786,
      "▁American": 787,
      "▁Health": 788,
      "et": 789,
      "le": 790,
      "▁light": 791,
      "▁Your": 792,
      "▁un": 793,
      "▁With": 794,
      "▁O": 795,
      "▁young": 796,
      "▁learn": 797,
      "▁bad": 798,
      "us": 799,
      "▁six": 800,
      "▁site": 801,
      "▁reached": 802,
      "▁launched": 803,
      "▁Ram": 804,
      "▁High": 805,
      "▁clear": 806,
      "▁industry": 807,
      "▁Our": 808,
      "▁date": 809,
      "▁expected": 810,
      "st": 811,
      "ating": 812,
      "ot": 813,
      "▁Not": 814,
      "▁research": 815,
      "▁Shri": 816,
      "▁election": 817,
      "▁occasion": 818,
      "▁Australia": 819,
      "▁entire": 820,
      "▁office": 821,
      "ul": 822,
      "▁Al": 823,
      "▁decided": 824,
      "os": 825,
      "▁yourself": 826,
      "▁24": 827,
      "▁shared": 828,
      "ra": 829,
      "▁amount": 830,
      "▁healthy": 831,
      "ity": 832,
      "▁International": 833,
      "L": 834,
      "▁Sabha": 835,
      "▁trying": 836,
      "ak": 837,
      "▁13": 838,
      "▁Another": 839,
      "▁Trump": 840,
      "▁married": 841,
      "▁written": 842,
      "▁dead": 843,
      "▁accident": 844,
      "▁g": 845,
      "▁general": 846,
      "▁recently": 847,
      "C": 848,
      "ness": 849,
      "▁energy": 850,
      "▁though": 851,
      "▁huge": 852,
      "▁seats": 853,
      "▁connection": 854,
      "▁eyes": 855,
      "▁technology": 856,
      "▁stop": 857,
      "▁living": 858,
      "▁hope": 859,
      "▁immediately": 860,
      "▁anyone": 861,
      "▁Lord": 862,
      "▁low": 863,
      "▁parts": 864,
      "▁station": 865,
      "est": 866,
      "▁war": 867,
      "▁17": 868,
      "▁changes": 869,
      "▁details": 870,
      "▁rate": 871,
      "▁saying": 872,
      "ist": 873,
      "▁films": 874,
      "▁husband": 875,
      "f": 876,
      "▁words": 877,
      "▁2020": 878,
      "▁below": 879,
      "▁ways": 880,
      "▁call": 881,
      "▁match": 882,
      "▁product": 883,
      "▁prices": 884,
      "▁General": 885,
      "▁close": 886,
      "v": 887,
      "▁wanted": 888,
      "▁likely": 889,
      "▁truth": 890,
      "▁features": 891,
      "▁card": 892,
      "▁single": 893,
      "▁short": 894,
      "▁stay": 895,
      "▁reasons": 896,
      "ive": 897,
      "▁success": 898,
      "ful": 899,
      "▁Most": 900,
      "▁app": 901,
      "▁couldn": 902,
      "▁strong": 903,
      "▁worked": 904,
      "▁Party": 905,
      "▁issued": 906,
      "▁relationship": 907,
      "▁financial": 908,
      "R": 909,
      "▁final": 910,
      "mni_Beng": 911,
      "▁Gujarat": 912,
      "A": 913,
      "id": 914,
      "▁Facebook": 915,
      "1": 916,
      "3": 917,
      "▁risk": 918,
      "▁serious": 919,
      "▁computer": 920,
      "▁ago": 921,
      "▁companies": 922,
      "▁building": 923,
      "▁n": 924,
      "▁production": 925,
      "▁application": 926,
      "▁completely": 927,
      "4": 928,
      "▁meet": 929,
      "▁born": 930,
      "▁Bangladesh": 931,
      "▁Bengal": 932,
      "▁Am": 933,
      "▁skin": 934,
      "▁places": 935,
      "▁workers": 936,
      "▁run": 937,
      "▁rest": 938,
      "▁Kerala": 939,
      "ment": 940,
      "▁First": 941,
      "▁create": 942,
      "▁pain": 943,
      "▁non": 944,
      "▁mean": 945,
      "▁remember": 946,
      "O": 947,
      "ine": 948,
      "▁ask": 949,
      "old": 950,
      "▁America": 951,
      "▁type": 952,
      "▁camera": 953,
      "▁St": 954,
      "▁40": 955,
      "▁current": 956,
      "▁weight": 957,
      "ent": 958,
      "w": 959,
      "▁Twitter": 960,
      "▁Central": 961,
      "▁natural": 962,
      "▁picture": 963,
      "▁users": 964,
      "▁informed": 965,
      "▁Supreme": 966,
      "▁mobile": 967,
      "▁leave": 968,
      "▁Google": 969,
      "▁certain": 970,
      "▁Air": 971,
      "ir": 972,
      "▁Sh": 973,
      "▁England": 974,
      "▁Secretary": 975,
      "▁Mr": 976,
      "▁capital": 977,
      "▁bank": 978,
      "▁patients": 979,
      "▁Where": 980,
      "▁Y": 981,
      "ings": 982,
      "▁share": 983,
      "▁above": 984,
      "▁directed": 985,
      "year": 986,
      "▁front": 987,
      "▁friend": 988,
      "▁morning": 989,
      "▁North": 990,
      "▁region": 991,
      "▁program": 992,
      "up": 993,
      "um": 994,
      "▁candidates": 995,
      "ations": 996,
      "▁half": 997,
      "▁TV": 998,
      "▁bring": 999,
      "ay": 1000,
      "▁cricket": 1001,
      "▁Home": 1002,
      "▁Her": 1003,
      "▁according": 1004,
      "▁21": 1005,
      "im": 1006,
      "ab": 1007,
      "▁kids": 1008,
      "▁allowed": 1009,
      "▁considered": 1010,
      "▁minutes": 1011,
      "▁pictures": 1012,
      "▁early": 1013,
      "▁More": 1014,
      "▁couple": 1015,
      "▁release": 1016,
      "E": 1017,
      "▁May": 1018,
      "-19": 1019,
      "▁daily": 1020,
      "▁Test": 1021,
      "▁Actually": 1022,
      "▁increased": 1023,
      "▁safe": 1024,
      "▁idea": 1025,
      "▁rights": 1026,
      "ch": 1027,
      "▁fight": 1028,
      "▁member": 1029,
      "▁add": 1030,
      "5": 1031,
      "▁word": 1032,
      "▁addition": 1033,
      "▁happens": 1034,
      "▁parties": 1035,
      "▁eat": 1036,
      "▁design": 1037,
      "▁interest": 1038,
      "▁actress": 1039,
      "F": 1040,
      "▁season": 1041,
      "▁Besides": 1042,
      "▁Lok": 1043,
      "▁alone": 1044,
      "▁move": 1045,
      "▁Today": 1046,
      "▁met": 1047,
      "▁population": 1048,
      "▁playing": 1049,
      "▁director": 1050,
      "▁society": 1051,
      "▁Jammu": 1052,
      "▁value": 1053,
      "om": 1054,
      "▁positive": 1055,
      "▁created": 1056,
      "▁complete": 1057,
      "▁Z": 1058,
      "▁forget": 1059,
      "▁books": 1060,
      "▁Karnataka": 1061,
      "▁w": 1062,
      "▁village": 1063,
      "▁gone": 1064,
      "▁color": 1065,
      "▁behind": 1066,
      "▁towards": 1067,
      "▁pretty": 1068,
      "▁takes": 1069,
      "▁global": 1070,
      "▁remain": 1071,
      "▁bit": 1072,
      "ts": 1073,
      "▁loss": 1074,
      "H": 1075,
      "▁Russia": 1076,
      "ol": 1077,
      "he": 1078,
      "▁space": 1079,
      "▁worth": 1080,
      "▁especially": 1081,
      "▁cancer": 1082,
      "N": 1083,
      "▁extremely": 1084,
      "▁similar": 1085,
      "▁Of": 1086,
      "▁key": 1087,
      "man": 1088,
      "▁types": 1089,
      "▁fun": 1090,
      "▁pressure": 1091,
      "▁view": 1092,
      "▁located": 1093,
      "▁peace": 1094,
      "▁black": 1095,
      "ism": 1096,
      "▁growth": 1097,
      "▁return": 1098,
      "▁runs": 1099,
      "r": 1100,
      "▁economic": 1101,
      "▁hands": 1102,
      "▁h": 1103,
      "▁heard": 1104,
      "▁access": 1105,
      "▁Department": 1106,
      "▁Best": 1107,
      "▁outside": 1108,
      "▁near": 1109,
      "▁During": 1110,
      "▁options": 1111,
      "▁usually": 1112,
      "▁senior": 1113,
      "▁related": 1114,
      "K": 1115,
      "▁write": 1116,
      "ro": 1117,
      "ary": 1118,
      "▁choose": 1119,
      "▁activities": 1120,
      "▁community": 1121,
      "▁red": 1122,
      "▁deal": 1123,
      "▁effect": 1124,
      "▁higher": 1125,
      "▁field": 1126,
      "em": 1127,
      "▁sleep": 1128,
      "▁2019": 1129,
      "▁successful": 1130,
      "7": 1131,
      "▁teams": 1132,
      "▁opportunity": 1133,
      "▁rules": 1134,
      "▁Can": 1135,
      "▁makes": 1136,
      "▁offer": 1137,
      "▁rain": 1138,
      "▁o": 1139,
      "ap": 1140,
      "▁almost": 1141,
      "▁games": 1142,
      "ates": 1143,
      "▁whether": 1144,
      "▁basis": 1145,
      "▁difference": 1146,
      "▁earlier": 1147,
      "▁step": 1148,
      "▁Although": 1149,
      "ance": 1150,
      "▁saw": 1151,
      "▁Currently": 1152,
      "▁conducted": 1153,
      "▁forward": 1154,
      "6": 1155,
      "▁wrote": 1156,
      "▁players": 1157,
      "ized": 1158,
      "▁Jesus": 1159,
      "▁gave": 1160,
      "▁buy": 1161,
      "ish": 1162,
      "▁completed": 1163,
      "▁schools": 1164,
      "▁included": 1165,
      "▁19": 1166,
      "hi": 1167,
      "▁search": 1168,
      "▁modern": 1169,
      "▁tax": 1170,
      "▁policy": 1171,
      "▁driver": 1172,
      "ri": 1173,
      "▁someone": 1174,
      "▁address": 1175,
      "▁Therefore": 1176,
      "▁Africa": 1177,
      "▁salt": 1178,
      "▁training": 1179,
      "▁temple": 1180,
      "ion": 1181,
      "▁clean": 1182,
      "▁response": 1183,
      "▁attention": 1184,
      "j": 1185,
      "▁interesting": 1186,
      "▁attended": 1187,
      "▁Raj": 1188,
      "▁sector": 1189,
      "▁hair": 1190,
      "z": 1191,
      "ens": 1192,
      "▁closed": 1193,
      "ov": 1194,
      "▁gold": 1195,
      "▁r": 1196,
      "▁British": 1197,
      "▁22": 1198,
      "▁fast": 1199,
      "▁murder": 1200,
      "▁beginning": 1201,
      "▁Commission": 1202,
      "▁Assembly": 1203,
      "▁viral": 1204,
      "▁check": 1205,
      "▁brought": 1206,
      "▁weeks": 1207,
      "▁produced": 1208,
      "▁Everyone": 1209,
      "▁article": 1210,
      "▁inside": 1211,
      "▁re": 1212,
      "▁coronavirus": 1213,
      "▁led": 1214,
      "▁Chinese": 1215,
      "▁follow": 1216,
      "▁families": 1217,
      "▁helps": 1218,
      "ions": 1219,
      "▁solution": 1220,
      "▁class": 1221,
      "▁nation": 1222,
      "ani": 1223,
      "▁co": 1224,
      "▁Yes": 1225,
      "▁song": 1226,
      "▁involved": 1227,
      "▁self": 1228,
      "▁ensure": 1229,
      "▁internet": 1230,
      "▁admitted": 1231,
      "9": 1232,
      "als": 1233,
      "▁Amit": 1234,
      "▁Europe": 1235,
      "▁includes": 1236,
      "▁happening": 1237,
      "▁line": 1238,
      "▁baby": 1239,
      "▁reports": 1240,
      "▁Uttar": 1241,
      "▁central": 1242,
      "▁March": 1243,
      "▁Sri": 1244,
      "▁Man": 1245,
      "▁passed": 1246,
      "▁speak": 1247,
      "▁environment": 1248,
      "ya": 1249,
      "▁position": 1250,
      "▁knowledge": 1251,
      "▁thank": 1252,
      "▁brother": 1253,
      "▁apply": 1254,
      "▁web": 1255,
      "▁Bihar": 1256,
      "▁politics": 1257,
      "▁function": 1258,
      "▁While": 1259,
      "▁Rajasthan": 1260,
      "▁easily": 1261,
      "se": 1262,
      "▁foreign": 1263,
      "▁active": 1264,
      "▁June": 1265,
      "▁seven": 1266,
      "▁Hospital": 1267,
      "▁upon": 1268,
      "▁loved": 1269,
      "▁built": 1270,
      "8": 1271,
      "▁knows": 1272,
      "▁etc": 1273,
      "▁ch": 1274,
      "▁January": 1275,
      "▁Justice": 1276,
      "▁normal": 1277,
      "▁July": 1278,
      "▁respect": 1279,
      "▁staff": 1280,
      "▁temperature": 1281,
      "▁heavy": 1282,
      "▁increasing": 1283,
      "les": 1284,
      "and": 1285,
      "▁customers": 1286,
      "▁physical": 1287,
      "▁October": 1288,
      "▁travel": 1289,
      "ag": 1290,
      "▁About": 1291,
      "▁April": 1292,
      "▁conditions": 1293,
      "▁fear": 1294,
      "age": 1295,
      "▁page": 1296,
      "▁economy": 1297,
      "▁al": 1298,
      "▁mix": 1299,
      "▁Women": 1300,
      "▁benefits": 1301,
      "ry": 1302,
      "▁virus": 1303,
      "▁responsibility": 1304,
      "▁Army": 1305,
      "▁highest": 1306,
      "ian": 1307,
      "ans": 1308,
      "▁century": 1309,
      "▁career": 1310,
      "▁benefit": 1311,
      "▁particular": 1312,
      "san_Deva": 1313,
      "▁Ch": 1314,
      "▁bus": 1315,
      "▁Council": 1316,
      "▁September": 1317,
      "▁talking": 1318,
      "Y": 1319,
      "▁published": 1320,
      "▁military": 1321,
      "▁employees": 1322,
      "U": 1323,
      "▁Centre": 1324,
      "▁late": 1325,
      "▁Education": 1326,
      "▁goes": 1327,
      "ants": 1328,
      "▁points": 1329,
      "▁exactly": 1330,
      "▁essential": 1331,
      "▁fine": 1332,
      "▁cities": 1333,
      "▁knew": 1334,
      "▁paid": 1335,
      "ha": 1336,
      "▁declared": 1337,
      "▁dream": 1338,
      "▁efforts": 1339,
      "ins": 1340,
      "▁option": 1341,
      "▁War": 1342,
      "▁st": 1343,
      "▁2018": 1344,
      "▁hear": 1345,
      "▁December": 1346,
      "▁Ad": 1347,
      "▁hit": 1348,
      "▁till": 1349,
      "av": 1350,
      "▁Before": 1351,
      "▁model": 1352,
      "▁birth": 1353,
      "un": 1354,
      "▁forces": 1355,
      "ure": 1356,
      "▁white": 1357,
      "▁Every": 1358,
      "▁safety": 1359,
      "▁thinking": 1360,
      "▁Internet": 1361,
      "▁device": 1362,
      "▁officer": 1363,
      "▁spread": 1364,
      "▁culture": 1365,
      "▁term": 1366,
      "▁steps": 1367,
      "oid": 1368,
      "▁Kohli": 1369,
      "▁developed": 1370,
      "▁source": 1371,
      "▁begin": 1372,
      "▁legal": 1373,
      "▁60": 1374,
      "to": 1375,
      "ous": 1376,
      "▁rushed": 1377,
      "▁sp": 1378,
      "▁content": 1379,
      "▁Nadu": 1380,
      "▁Hindi": 1381,
      "▁Ali": 1382,
      "▁MP": 1383,
      "▁photos": 1384,
      "▁Afghanistan": 1385,
      "▁please": 1386,
      "▁management": 1387,
      "▁wants": 1388,
      "▁districts": 1389,
      "▁photo": 1390,
      "▁train": 1391,
      "▁sugar": 1392,
      "▁recent": 1393,
      "▁network": 1394,
      "▁vehicle": 1395,
      "▁writing": 1396,
      "▁additional": 1397,
      "▁Medical": 1398,
      "▁August": 1399,
      "▁effective": 1400,
      "▁contact": 1401,
      "▁European": 1402,
      "▁terms": 1403,
      "▁seems": 1404,
      "▁letter": 1405,
      "W": 1406,
      "▁nice": 1407,
      "▁committee": 1408,
      "▁diet": 1409,
      "▁student": 1410,
      "▁vehicles": 1411,
      "ting": 1412,
      "▁Re": 1413,
      "x": 1414,
      "V": 1415,
      "▁quickly": 1416,
      "▁2021": 1417,
      "▁CBI": 1418,
      "▁Israel": 1419,
      "▁individual": 1420,
      "▁marriage": 1421,
      "▁Only": 1422,
      "▁himself": 1423,
      "▁de": 1424,
      "▁Meanwhile": 1425,
      "▁CM": 1426,
      "ons": 1427,
      "▁k": 1428,
      "▁eight": 1429,
      "▁nature": 1430,
      "▁projects": 1431,
      "▁green": 1432,
      "▁town": 1433,
      "▁tried": 1434,
      "▁named": 1435,
      "▁affected": 1436,
      "▁j": 1437,
      "▁billion": 1438,
      "▁improve": 1439,
      "▁College": 1440,
      "▁doctors": 1441,
      "op": 1442,
      "▁Apart": 1443,
      "▁symptoms": 1444,
      "▁sometimes": 1445,
      "▁programme": 1446,
      "ats": 1447,
      "▁impact": 1448,
      "▁Parliament": 1449,
      "▁fans": 1450,
      "▁longer": 1451,
      "▁biggest": 1452,
      "▁charge": 1453,
      "▁John": 1454,
      "▁Cup": 1455,
      "▁France": 1456,
      "▁Allah": 1457,
      "ana": 1458,
      "▁file": 1459,
      "▁events": 1460,
      "▁Development": 1461,
      "▁save": 1462,
      "▁cold": 1463,
      "▁purpose": 1464,
      "ala": 1465,
      "▁earth": 1466,
      "▁recovered": 1467,
      "▁23": 1468,
      "ally": 1469,
      "▁haven": 1470,
      "▁Three": 1471,
      "▁specific": 1472,
      "▁performance": 1473,
      "▁Director": 1474,
      "▁caused": 1475,
      "▁sources": 1476,
      "▁+": 1477,
      "▁November": 1478,
      "▁Its": 1479,
      "led": 1480,
      "▁income": 1481,
      "▁hold": 1482,
      "esh": 1483,
      "▁choice": 1484,
      "ors": 1485,
      "▁operation": 1486,
      "▁trade": 1487,
      "20": 1488,
      "day": 1489,
      "▁software": 1490,
      "▁26": 1491,
      "▁stated": 1492,
      "▁enjoy": 1493,
      "ise": 1494,
      "▁construction": 1495,
      "▁v": 1496,
      "▁department": 1497,
      "▁looked": 1498,
      "▁By": 1499,
      "▁sc": 1500,
      "▁Asia": 1501,
      "ash": 1502,
      "▁leading": 1503,
      "▁sports": 1504,
      "ath": 1505,
      "▁stand": 1506,
      "ite": 1507,
      "▁rooms": 1508,
      "▁French": 1509,
      "▁size": 1510,
      "▁milk": 1511,
      "▁_": 1512,
      "▁allow": 1513,
      "▁science": 1514,
      "▁poor": 1515,
      "▁COVID": 1516,
      "▁force": 1517,
      "GB": 1518,
      "▁record": 1519,
      "▁looks": 1520,
      "▁wait": 1521,
      "▁Former": 1522,
      "▁reach": 1523,
      "ted": 1524,
      "▁Hyderabad": 1525,
      "▁Among": 1526,
      "▁opened": 1527,
      "▁significant": 1528,
      "▁2017": 1529,
      "▁Board": 1530,
      "▁injuries": 1531,
      "▁user": 1532,
      "▁28": 1533,
      "▁receive": 1534,
      "▁stage": 1535,
      "▁expressed": 1536,
      "▁throughout": 1537,
      "▁suicide": 1538,
      "▁groups": 1539,
      "▁professional": 1540,
      "▁aren": 1541,
      "▁Russian": 1542,
      "▁District": 1543,
      "▁supply": 1544,
      "▁Their": 1545,
      "▁message": 1546,
      "▁material": 1547,
      "ter": 1548,
      "▁names": 1549,
      "▁range": 1550,
      "▁UK": 1551,
      "▁London": 1552,
      "▁plans": 1553,
      "▁stars": 1554,
      "▁rise": 1555,
      "▁House": 1556,
      "▁Japan": 1557,
      "▁laws": 1558,
      "▁officers": 1559,
      "▁School": 1560,
      "ara": 1561,
      "▁provides": 1562,
      "▁From": 1563,
      "▁Since": 1564,
      "od": 1565,
      "▁reality": 1566,
      "ie": 1567,
      "▁itself": 1568,
      "▁roles": 1569,
      "▁lodged": 1570,
      "▁responsible": 1571,
      "▁trust": 1572,
      "▁variety": 1573,
      "▁girls": 1574,
      "▁captain": 1575,
      "▁consider": 1576,
      "▁80": 1577,
      "▁drink": 1578,
      "▁ones": 1579,
      "▁citizens": 1580,
      "▁Institute": 1581,
      "▁email": 1582,
      "▁Hindu": 1583,
      "▁sh": 1584,
      "▁reduce": 1585,
      "ow": 1586,
      "▁languages": 1587,
      "▁regarding": 1588,
      "▁levels": 1589,
      "ial": 1590,
      "▁diseases": 1591,
      "▁turn": 1592,
      "▁college": 1593,
      "▁200": 1594,
      "▁degree": 1595,
      "▁star": 1596,
      "▁Committee": 1597,
      "▁scheme": 1598,
      "▁2016": 1599,
      "▁watch": 1600,
      "ib": 1601,
      "▁investment": 1602,
      "▁rich": 1603,
      "▁prepared": 1604,
      "ets": 1605,
      "▁established": 1606,
      "▁formed": 1607,
      "▁participated": 1608,
      "▁Apple": 1609,
      "▁image": 1610,
      "▁protect": 1611,
      "▁X": 1612,
      "▁demand": 1613,
      "▁art": 1614,
      "▁Instagram": 1615,
      "▁youth": 1616,
      "▁joined": 1617,
      "▁February": 1618,
      "▁secretary": 1619,
      "ari": 1620,
      "▁ground": 1621,
      "▁City": 1622,
      "▁method": 1623,
      "▁Kh": 1624,
      "▁y": 1625,
      "▁gets": 1626,
      "▁assembly": 1627,
      "▁exercise": 1628,
      "▁candidate": 1629,
      "▁Un": 1630,
      "▁Q": 1631,
      "▁section": 1632,
      "▁via": 1633,
      "▁board": 1634,
      "ut": 1635,
      "▁digital": 1636,
      "ize": 1637,
      "▁passengers": 1638,
      "▁East": 1639,
      "way": 1640,
      "▁chance": 1641,
      "▁turned": 1642,
      "▁0": 1643,
      "▁York": 1644,
      "▁alleged": 1645,
      "its": 1646,
      "▁rule": 1647,
      "▁average": 1648,
      "▁simply": 1649,
      "▁continued": 1650,
      "▁waiting": 1651,
      "▁famous": 1652,
      "▁hotel": 1653,
      "▁interested": 1654,
      "▁credit": 1655,
      "▁personnel": 1656,
      "▁Yadav": 1657,
      "▁Haryana": 1658,
      "ists": 1659,
      "▁kept": 1660,
      "▁sea": 1661,
      "▁die": 1662,
      "▁progress": 1663,
      "ization": 1664,
      "▁speed": 1665,
      "▁Below": 1666,
      "▁unique": 1667,
      "▁Thank": 1668,
      "▁growing": 1669,
      "▁Germany": 1670,
      "▁afraid": 1671,
      "▁followed": 1672,
      "▁evidence": 1673,
      "▁lower": 1674,
      "▁useful": 1675,
      "▁goal": 1676,
      "▁claimed": 1677,
      "▁religion": 1678,
      "▁violence": 1679,
      "▁becomes": 1680,
      "ments": 1681,
      "▁wish": 1682,
      "▁subject": 1683,
      "▁property": 1684,
      "▁freedom": 1685,
      "▁investigating": 1686,
      "▁returned": 1687,
      "▁player": 1688,
      "▁discussed": 1689,
      "▁pre": 1690,
      "▁reading": 1691,
      "▁learning": 1692,
      "▁numbers": 1693,
      "▁excellent": 1694,
      "▁27": 1695,
      "ig": 1696,
      "▁animals": 1697,
      "▁Salman": 1698,
      "ose": 1699,
      "▁version": 1700,
      "▁Always": 1701,
      "all": 1702,
      "▁avoid": 1703,
      "ars": 1704,
      "▁worry": 1705,
      "▁anti": 1706,
      "▁offers": 1707,
      "▁drug": 1708,
      "▁finally": 1709,
      "based": 1710,
      "▁sign": 1711,
      "▁sides": 1712,
      "ard": 1713,
      "▁31": 1714,
      "▁prime": 1715,
      "▁concerned": 1716,
      "▁journey": 1717,
      "00": 1718,
      "ik": 1719,
      "▁celebrated": 1720,
      "▁Muslim": 1721,
      "▁Android": 1722,
      "▁blog": 1723,
      "▁boy": 1724,
      "▁prevent": 1725,
      "ical": 1726,
      "▁Have": 1727,
      "▁Later": 1728,
      "▁amazing": 1729,
      "▁Just": 1730,
      "▁movement": 1731,
      "▁heat": 1732,
      "▁videos": 1733,
      "ai": 1734,
      "▁movies": 1735,
      "▁equal": 1736,
      "▁Life": 1737,
      "▁thanks": 1738,
      "▁myself": 1739,
      "▁majority": 1740,
      "▁bodies": 1741,
      "▁style": 1742,
      "▁shot": 1743,
      "▁Chennai": 1744,
      "▁carried": 1745,
      "ue": 1746,
      "▁certainly": 1747,
      "▁2014": 1748,
      "▁evening": 1749,
      "▁Cons": 1750,
      "▁patient": 1751,
      "▁press": 1752,
      "▁religious": 1753,
      "▁Affairs": 1754,
      "▁systems": 1755,
      "▁themselves": 1756,
      "ely": 1757,
      "▁therefore": 1758,
      "▁lose": 1759,
      "▁plant": 1760,
      "▁smartphone": 1761,
      "▁70": 1762,
      "pur": 1763,
      "▁Virat": 1764,
      "less": 1765,
      "▁effects": 1766,
      "▁protest": 1767,
      "▁voice": 1768,
      "▁storage": 1769,
      "▁correct": 1770,
      "▁underway": 1771,
      "▁stopped": 1772,
      "▁Take": 1773,
      "one": 1774,
      "▁focus": 1775,
      "▁act": 1776,
      "▁Several": 1777,
      "▁border": 1778,
      "▁award": 1779,
      "▁Each": 1780,
      "▁running": 1781,
      "▁door": 1782,
      "▁remains": 1783,
      "▁Pro": 1784,
      "▁colors": 1785,
      "▁plays": 1786,
      "▁Anyone": 1787,
      "▁Canada": 1788,
      "▁committed": 1789,
      "▁houses": 1790,
      "▁gas": 1791,
      "▁feature": 1792,
      "▁Again": 1793,
      "▁Je": 1794,
      "▁shows": 1795,
      "inder": 1796,
      "▁hot": 1797,
      "▁Th": 1798,
      "▁IPL": 1799,
      "kas_Deva": 1800,
      "▁authorities": 1801,
      ",000": 1802,
      "▁build": 1803,
      "ang": 1804,
      "▁direction": 1805,
      "▁administration": 1806,
      "▁Iran": 1807,
      "▁cut": 1808,
      "▁Or": 1809,
      "▁confirmed": 1810,
      "▁river": 1811,
      "▁ahead": 1812,
      "▁directly": 1813,
      "▁29": 1814,
      "▁measures": 1815,
      "▁App": 1816,
      "▁king": 1817,
      "▁Children": 1818,
      "▁probably": 1819,
      "▁fourth": 1820,
      "▁opportunities": 1821,
      "▁dry": 1822,
      "▁strength": 1823,
      "▁cultural": 1824,
      "▁Bh": 1825,
      "▁basic": 1826,
      "▁link": 1827,
      "▁offered": 1828,
      "▁2015": 1829,
      "▁identified": 1830,
      "▁upcoming": 1831,
      "▁examination": 1832,
      "▁agree": 1833,
      "▁screen": 1834,
      "▁Such": 1835,
      "▁careful": 1836,
      "▁raised": 1837,
      "▁felt": 1838,
      "▁vaccine": 1839,
      "▁Security": 1840,
      "▁conference": 1841,
      "ast": 1842,
      "▁Shiv": 1843,
      "▁90": 1844,
      "▁achieve": 1845,
      "▁airport": 1846,
      "▁Ex": 1847,
      "ide": 1848,
      "▁truly": 1849,
      "▁Students": 1850,
      "▁demanded": 1851,
      "▁Other": 1852,
      "▁aware": 1853,
      "▁th": 1854,
      "▁Windows": 1855,
      "▁fully": 1856,
      "▁previous": 1857,
      "▁devices": 1858,
      "▁35": 1859,
      "▁pepper": 1860,
      "iv": 1861,
      "▁teachers": 1862,
      "▁Please": 1863,
      "▁spend": 1864,
      "▁sound": 1865,
      "▁drive": 1866,
      "▁costs": 1867,
      "▁launch": 1868,
      "▁allows": 1869,
      "▁probe": 1870,
      "▁maximum": 1871,
      "▁cash": 1872,
      "▁Zealand": 1873,
      "▁Commissioner": 1874,
      "▁contains": 1875,
      "▁gives": 1876,
      "▁..": 1877,
      "▁infection": 1878,
      "▁arrived": 1879,
      "▁capacity": 1880,
      "ip": 1881,
      "▁500": 1882,
      "▁Business": 1883,
      "▁banks": 1884,
      "▁shooting": 1885,
      "▁Over": 1886,
      "▁Will": 1887,
      "▁Madhya": 1888,
      "▁seat": 1889,
      "▁Finance": 1890,
      "▁facilities": 1891,
      "▁Andhra": 1892,
      "▁Read": 1893,
      "▁sub": 1894,
      "▁campaign": 1895,
      "▁wedding": 1896,
      "▁feet": 1897,
      "▁deaths": 1898,
      "▁Deputy": 1899,
      "▁send": 1900,
      "ou": 1901,
      "▁latest": 1902,
      "▁served": 1903,
      "▁Me": 1904,
      "▁Vijay": 1905,
      "▁feeling": 1906,
      "▁budget": 1907,
      "▁continues": 1908,
      "ud": 1909,
      "▁female": 1910,
      "▁Cricket": 1911,
      "ub": 1912,
      "▁appointed": 1913,
      "▁planning": 1914,
      "har": 1915,
      "▁wonderful": 1916,
      "▁limited": 1917,
      "▁primary": 1918,
      "▁failed": 1919,
      "▁moved": 1920,
      "▁tweeted": 1921,
      "▁faith": 1922,
      "▁Even": 1923,
      "▁multiple": 1924,
      "▁traffic": 1925,
      "▁proud": 1926,
      "▁damage": 1927,
      "▁cook": 1928,
      "▁giving": 1929,
      "ac": 1930,
      "▁weather": 1931,
      "▁mixture": 1932,
      "ised": 1933,
      "▁wickets": 1934,
      "▁activity": 1935,
      "ailable": 1936,
      "▁stress": 1937,
      "▁causes": 1938,
      "▁jobs": 1939,
      "▁Islam": 1940,
      "ali": 1941,
      "▁advice": 1942,
      "▁fall": 1943,
      "ically": 1944,
      "ling": 1945,
      "▁dangerous": 1946,
      "▁cl": 1947,
      "ium": 1948,
      "▁Research": 1949,
      "▁depends": 1950,
      "▁revealed": 1951,
      "▁interview": 1952,
      "▁approved": 1953,
      "▁mentioned": 1954,
      "▁yes": 1955,
      "▁phase": 1956,
      "▁foods": 1957,
      "▁Telugu": 1958,
      "▁nearly": 1959,
      "▁Ask": 1960,
      "▁Lanka": 1961,
      "ages": 1962,
      "▁Constitution": 1963,
      "▁attend": 1964,
      "▁unit": 1965,
      "ver": 1966,
      "▁meaning": 1967,
      "▁platform": 1968,
      "▁direct": 1969,
      "▁wouldn": 1970,
      "ians": 1971,
      "▁discussion": 1972,
      "▁potential": 1973,
      "▁join": 1974,
      "▁download": 1975,
      "▁Ar": 1976,
      "▁vote": 1977,
      "▁Water": 1978,
      "▁negative": 1979,
      "▁definitely": 1980,
      "▁university": 1981,
      "▁table": 1982,
      "▁path": 1983,
      "▁matches": 1984,
      "▁grow": 1985,
      "▁develop": 1986,
      "▁League": 1987,
      "▁occurred": 1988,
      "▁enter": 1989,
      "▁festival": 1990,
      "ics": 1991,
      "▁stories": 1992,
      "▁exam": 1993,
      "▁spoke": 1994,
      "▁birthday": 1995,
      "▁songs": 1996,
      "▁UN": 1997,
      "▁starting": 1998,
      "▁purchase": 1999,
      "time": 2000,
      "▁hasn": 2001,
      "▁opposition": 2002,
      "▁32": 2003,
      "▁agreement": 2004,
      "▁drugs": 2005,
      "▁Muslims": 2006,
      "▁competition": 2007,
      "▁diesel": 2008,
      "▁absolutely": 2009,
      "▁studies": 2010,
      "▁perfect": 2011,
      "▁importance": 2012,
      "▁effort": 2013,
      "▁seized": 2014,
      "▁store": 2015,
      "▁wide": 2016,
      "▁Rohit": 2017,
      "▁warm": 2018,
      "▁providing": 2019,
      "▁km": 2020,
      "▁ideas": 2021,
      "▁roads": 2022,
      "▁hearing": 2023,
      "▁sold": 2024,
      "▁Indians": 2025,
      "are": 2026,
      "▁seriously": 2027,
      "▁ex": 2028,
      "▁sun": 2029,
      "▁standard": 2030,
      "our": 2031,
      "▁signed": 2032,
      "▁protection": 2033,
      "▁brain": 2034,
      "▁notice": 2035,
      "▁fell": 2036,
      "▁practice": 2037,
      "if": 2038,
      "oc": 2039,
      "▁shown": 2040,
      "▁thousands": 2041,
      "▁insurance": 2042,
      "han": 2043,
      "▁pass": 2044,
      "▁ability": 2045,
      "▁relations": 2046,
      "▁associated": 2047,
      "▁institutions": 2048,
      "▁treated": 2049,
      "▁Telangana": 2050,
      "▁Well": 2051,
      "▁separate": 2052,
      "▁designed": 2053,
      "ill": 2054,
      "▁posted": 2055,
      "▁crime": 2056,
      "▁Group": 2057,
      "▁Under": 2058,
      "▁mental": 2059,
      "▁decide": 2060,
      "▁thousand": 2061,
      "▁location": 2062,
      "▁Donald": 2063,
      "▁centre": 2064,
      "▁Actor": 2065,
      "▁deep": 2066,
      "nd": 2067,
      "▁fl": 2068,
      "▁elected": 2069,
      "▁teacher": 2070,
      "▁Covid": 2071,
      "▁lots": 2072,
      "▁paper": 2073,
      "▁powerful": 2074,
      "▁cool": 2075,
      "▁presented": 2076,
      "▁Black": 2077,
      "▁documents": 2078,
      "az": 2079,
      "▁accept": 2080,
      "▁Science": 2081,
      "▁vegetables": 2082,
      "▁sister": 2083,
      "▁super": 2084,
      "▁maintain": 2085,
      "▁opinion": 2086,
      "▁Did": 2087,
      "▁ten": 2088,
      "▁materials": 2089,
      "J": 2090,
      "▁De": 2091,
      "▁Following": 2092,
      "ind": 2093,
      "▁session": 2094,
      "▁challenge": 2095,
      "▁suffered": 2096,
      "▁Technology": 2097,
      "▁occur": 2098,
      "▁victory": 2099,
      "▁critical": 2100,
      "▁regular": 2101,
      "▁plants": 2102,
      "▁pandemic": 2103,
      "ile": 2104,
      "▁applications": 2105,
      "▁iPhone": 2106,
      "▁Go": 2107,
      "▁Special": 2108,
      "▁arrest": 2109,
      "▁accepted": 2110,
      "▁sw": 2111,
      "▁Film": 2112,
      "▁marketing": 2113,
      "▁individuals": 2114,
      "▁appear": 2115,
      "▁begins": 2116,
      "▁operations": 2117,
      "▁cooperation": 2118,
      "▁require": 2119,
      "▁Social": 2120,
      "▁MLA": 2121,
      "▁south": 2122,
      "▁medicine": 2123,
      "▁items": 2124,
      "▁expect": 2125,
      "▁character": 2126,
      "▁jail": 2127,
      "▁connected": 2128,
      "▁Bharat": 2129,
      "▁receiving": 2130,
      "out": 2131,
      "▁television": 2132,
      "▁custody": 2133,
      "X": 2134,
      "▁note": 2135,
      "▁Association": 2136,
      "▁north": 2137,
      "▁--": 2138,
      "▁crisis": 2139,
      "▁equipment": 2140,
      "▁Earth": 2141,
      "▁resources": 2142,
      "▁inf": 2143,
      "▁forms": 2144,
      "▁Public": 2145,
      "▁complex": 2146,
      "▁lived": 2147,
      "▁rather": 2148,
      "▁memory": 2149,
      "▁center": 2150,
      "▁helped": 2151,
      "▁request": 2152,
      "▁Post": 2153,
      "▁believed": 2154,
      "▁decisions": 2155,
      "▁x": 2156,
      "▁challenges": 2157,
      "▁•": 2158,
      "na": 2159,
      "▁minimum": 2160,
      "▁examples": 2161,
      "▁totally": 2162,
      "ati": 2163,
      "▁Love": 2164,
      "▁Earlier": 2165,
      "▁fish": 2166,
      "▁engine": 2167,
      "▁victim": 2168,
      "▁organization": 2169,
      "▁ordered": 2170,
      "▁remained": 2171,
      "▁hospitals": 2172,
      "▁payment": 2173,
      "og": 2174,
      "▁sons": 2175,
      "▁twice": 2176,
      "▁customer": 2177,
      "▁thoughts": 2178,
      "▁Red": 2179,
      "▁expensive": 2180,
      "▁walk": 2181,
      "▁charges": 2182,
      "▁facing": 2183,
      "▁comments": 2184,
      "▁Force": 2185,
      "▁presence": 2186,
      "▁Republic": 2187,
      "▁sense": 2188,
      "▁Cabinet": 2189,
      "▁operating": 2190,
      "▁impossible": 2191,
      "▁code": 2192,
      "▁garlic": 2193,
      "▁army": 2194,
      "▁brand": 2195,
      "▁petrol": 2196,
      "▁status": 2197,
      "▁eye": 2198,
      "▁Additional": 2199,
      "▁approach": 2200,
      "▁review": 2201,
      "▁seem": 2202,
      "▁soldiers": 2203,
      "bs": 2204,
      "▁listen": 2205,
      "▁Good": 2206,
      "▁lack": 2207,
      "▁spent": 2208,
      "ring": 2209,
      "▁particularly": 2210,
      "▁Defence": 2211,
      "▁sex": 2212,
      "▁touch": 2213,
      "▁Congratulations": 2214,
      "▁writer": 2215,
      "▁Korea": 2216,
      "▁ministers": 2217,
      "▁easier": 2218,
      "▁sad": 2219,
      "▁Come": 2220,
      "▁accounts": 2221,
      "▁anymore": 2222,
      "▁cars": 2223,
      "▁German": 2224,
      "▁blue": 2225,
      "▁talks": 2226,
      "▁King": 2227,
      "▁tests": 2228,
      "▁attacks": 2229,
      "▁hour": 2230,
      "▁recorded": 2231,
      "▁severe": 2232,
      "▁comfortable": 2233,
      "▁methods": 2234,
      "▁Those": 2235,
      "aw": 2236,
      "▁break": 2237,
      "▁joint": 2238,
      "▁kill": 2239,
      "▁Assam": 2240,
      "▁bed": 2241,
      "▁eating": 2242,
      "▁Bill": 2243,
      "▁Kolkata": 2244,
      "▁proper": 2245,
      "▁Reddy": 2246,
      "▁factors": 2247,
      "▁summer": 2248,
      "▁ended": 2249,
      "▁affect": 2250,
      "▁internal": 2251,
      "▁indeed": 2252,
      "▁Bachchan": 2253,
      "▁Service": 2254,
      "res": 2255,
      "▁middle": 2256,
      "▁Foreign": 2257,
      "▁distance": 2258,
      "ach": 2259,
      "▁suffering": 2260,
      "▁deceased": 2261,
      "▁45": 2262,
      "▁greater": 2263,
      "▁remove": 2264,
      "▁participate": 2265,
      "▁changing": 2266,
      "▁files": 2267,
      "▁agency": 2268,
      "▁gl": 2269,
      "▁Information": 2270,
      "ines": 2271,
      "▁Patel": 2272,
      "▁democracy": 2273,
      "▁Ab": 2274,
      "▁increases": 2275,
      "▁text": 2276,
      "▁Four": 2277,
      "▁highly": 2278,
      "▁removed": 2279,
      "▁justice": 2280,
      "ore": 2281,
      "ice": 2282,
      "▁goods": 2283,
      "▁Everything": 2284,
      "▁wear": 2285,
      "▁author": 2286,
      "▁appeared": 2287,
      "▁colour": 2288,
      "▁produce": 2289,
      "▁football": 2290,
      "▁fresh": 2291,
      "▁denied": 2292,
      "▁skills": 2293,
      "▁independent": 2294,
      "▁discuss": 2295,
      "ative": 2296,
      "▁leadership": 2297,
      "▁comp": 2298,
      "▁recommended": 2299,
      "▁sitting": 2300,
      "▁Con": 2301,
      "▁UP": 2302,
      "▁domestic": 2303,
      "ina": 2304,
      "▁Chairman": 2305,
      "▁communication": 2306,
      "▁agriculture": 2307,
      "▁2012": 2308,
      "ious": 2309,
      "ram": 2310,
      "▁carry": 2311,
      "▁sexual": 2312,
      "▁welcome": 2313,
      "▁visited": 2314,
      "▁Vice": 2315,
      "▁Priyanka": 2316,
      "▁species": 2317,
      "▁traditional": 2318,
      "▁original": 2319,
      "▁300": 2320,
      "ible": 2321,
      "▁becoming": 2322,
      "▁assistance": 2323,
      "▁Award": 2324,
      "▁FIR": 2325,
      "▁generally": 2326,
      "▁answers": 2327,
      "▁divided": 2328,
      "▁cells": 2329,
      "▁ceremony": 2330,
      "▁ancient": 2331,
      "▁Corporation": 2332,
      "▁Law": 2333,
      "oon": 2334,
      "▁ra": 2335,
      "▁sales": 2336,
      "▁structure": 2337,
      "ug": 2338,
      "ator": 2339,
      "▁cover": 2340,
      "▁starts": 2341,
      "▁cell": 2342,
      "q": 2343,
      "▁comment": 2344,
      "▁oxygen": 2345,
      "pt": 2346,
      "▁Ind": 2347,
      "▁rains": 2348,
      "▁scored": 2349,
      "▁technical": 2350,
      "▁speaking": 2351,
      "▁onion": 2352,
      "▁models": 2353,
      "▁sites": 2354,
      "▁Make": 2355,
      "ology": 2356,
      "▁answered": 2357,
      "ery": 2358,
      "▁electric": 2359,
      "▁whose": 2360,
      "▁bill": 2361,
      "▁whom": 2362,
      "▁Pakistani": 2363,
      "▁battle": 2364,
      "▁animal": 2365,
      "▁Nepal": 2366,
      "▁infrastructure": 2367,
      "▁worried": 2368,
      "▁2013": 2369,
      "▁Sub": 2370,
      "▁Har": 2371,
      "▁fruits": 2372,
      "▁Sena": 2373,
      "aj": 2374,
      "▁stir": 2375,
      "ith": 2376,
      "▁images": 2377,
      "▁scene": 2378,
      "▁tree": 2379,
      "▁Answ": 2380,
      "▁drinking": 2381,
      "te": 2382,
      "▁rates": 2383,
      "▁submitted": 2384,
      "▁Sanjay": 2385,
      "▁Father": 2386,
      "▁battery": 2387,
      "▁Park": 2388,
      "▁machine": 2389,
      "▁Control": 2390,
      "▁Once": 2391,
      "▁programs": 2392,
      "▁aircraft": 2393,
      "▁Christ": 2394,
      "▁terrorists": 2395,
      "▁agreed": 2396,
      "▁instead": 2397,
      "▁Mar": 2398,
      "▁placed": 2399,
      "▁Article": 2400,
      "▁Services": 2401,
      "▁testing": 2402,
      "▁en": 2403,
      "▁civil": 2404,
      "mortem": 2405,
      "ain": 2406,
      "▁Governor": 2407,
      "▁commercial": 2408,
      "▁II": 2409,
      "▁sell": 2410,
      "▁entered": 2411,
      "▁Election": 2412,
      "▁Office": 2413,
      "▁appropriate": 2414,
      "▁climate": 2415,
      "▁loan": 2416,
      "▁happiness": 2417,
      "▁Bal": 2418,
      "▁introduced": 2419,
      "▁allegations": 2420,
      "▁numerous": 2421,
      "▁elements": 2422,
      "▁Anil": 2423,
      "▁surprised": 2424,
      "▁creating": 2425,
      "▁leaves": 2426,
      "ities": 2427,
      "▁goals": 2428,
      "▁selected": 2429,
      "▁Sometimes": 2430,
      "▁moving": 2431,
      "▁learned": 2432,
      "▁Asian": 2433,
      "▁compared": 2434,
      "▁suitable": 2435,
      "▁fee": 2436,
      "▁railway": 2437,
      "▁MLAs": 2438,
      "ess": 2439,
      "▁transport": 2440,
      "▁governments": 2441,
      "▁dis": 2442,
      "/": 2443,
      "▁solve": 2444,
      "▁title": 2445,
      "▁performed": 2446,
      "▁box": 2447,
      "▁Amazon": 2448,
      "▁shifted": 2449,
      "▁older": 2450,
      "▁kinds": 2451,
      "ms": 2452,
      "of": 2453,
      "▁doubt": 2454,
      "▁polls": 2455,
      "▁partner": 2456,
      "▁YouTube": 2457,
      "ge": 2458,
      "▁tea": 2459,
      "▁Super": 2460,
      "▁refused": 2461,
      "▁missing": 2462,
      "▁Dev": 2463,
      "term": 2464,
      "ks": 2465,
      "▁rural": 2466,
      "pe": 2467,
      "▁remaining": 2468,
      "▁Time": 2469,
      "▁cards": 2470,
      "▁Human": 2471,
      "ale": 2472,
      "▁Saudi": 2473,
      "uk": 2474,
      "▁speech": 2475,
      "▁funds": 2476,
      "▁Mah": 2477,
      "▁extra": 2478,
      "▁2008": 2479,
      "war": 2480,
      "▁Arjun": 2481,
      "ee": 2482,
      "▁See": 2483,
      "▁2011": 2484,
      "▁Rao": 2485,
      "▁rejected": 2486,
      "▁sale": 2487,
      "▁juice": 2488,
      "▁Food": 2489,
      "▁posts": 2490,
      "▁degrees": 2491,
      "▁Bar": 2492,
      "▁actors": 2493,
      "hed": 2494,
      "▁Around": 2495,
      "▁Last": 2496,
      "▁Sar": 2497,
      "▁David": 2498,
      "ider": 2499,
      "▁confidence": 2500,
      "▁SP": 2501,
      "▁wishes": 2502,
      "▁Family": 2503,
      "▁ministry": 2504,
      "▁announcement": 2505,
      "▁handed": 2506,
      "▁coffee": 2507,
      "▁*": 2508,
      "▁claim": 2509,
      "▁stock": 2510,
      "ots": 2511,
      "▁annual": 2512,
      "▁opposite": 2513,
      "▁damaged": 2514,
      "▁reduced": 2515,
      "▁requires": 2516,
      "▁pregnant": 2517,
      "▁developing": 2518,
      "▁Oh": 2519,
      "▁inter": 2520,
      "▁phones": 2521,
      "▁serve": 2522,
      "▁concern": 2523,
      "▁75": 2524,
      "▁worldwide": 2525,
      "▁winter": 2526,
      "▁forg": 2527,
      "▁properties": 2528,
      "▁employment": 2529,
      "▁150": 2530,
      "kas_Arab": 2531,
      "▁figure": 2532,
      "▁Being": 2533,
      "ade": 2534,
      "▁category": 2535,
      "▁Road": 2536,
      "▁sl": 2537,
      "▁anywhere": 2538,
      "▁exist": 2539,
      "▁markets": 2540,
      "▁limit": 2541,
      "▁Which": 2542,
      "▁homes": 2543,
      "▁understanding": 2544,
      "ph": 2545,
      "els": 2546,
      "▁attempt": 2547,
      "▁click": 2548,
      "▁reply": 2549,
      "▁fighting": 2550,
      "▁tournament": 2551,
      "OR": 2552,
      "▁....": 2553,
      "▁glad": 2554,
      "▁Hence": 2555,
      "▁dark": 2556,
      "▁matters": 2557,
      "▁Friday": 2558,
      "▁Bl": 2559,
      "▁pregnancy": 2560,
      "▁USA": 2561,
      "▁powder": 2562,
      "▁nor": 2563,
      "ty": 2564,
      "▁brothers": 2565,
      "ened": 2566,
      "kar": 2567,
      "▁Nations": 2568,
      "▁requirements": 2569,
      "aya": 2570,
      "▁Company": 2571,
      "▁Power": 2572,
      "▁cup": 2573,
      "▁duty": 2574,
      "▁Agriculture": 2575,
      "▁petition": 2576,
      "▁emergency": 2577,
      "ass": 2578,
      "▁views": 2579,
      "▁round": 2580,
      "▁beauty": 2581,
      "ini": 2582,
      "▁Bengaluru": 2583,
      "▁ins": 2584,
      "▁task": 2585,
      "▁businesses": 2586,
      "▁trip": 2587,
      "▁managed": 2588,
      "▁nearby": 2589,
      "▁sort": 2590,
      "▁finished": 2591,
      "ric": 2592,
      "▁firm": 2593,
      "▁protein": 2594,
      "▁Kejriwal": 2595,
      "ures": 2596,
      "▁explain": 2597,
      "▁existing": 2598,
      "▁WhatsApp": 2599,
      "ence": 2600,
      "▁trial": 2601,
      "▁pan": 2602,
      "per": 2603,
      "▁trees": 2604,
      "▁awarded": 2605,
      "▁Open": 2606,
      "▁procedure": 2607,
      "▁residents": 2608,
      "▁invited": 2609,
      "▁kitchen": 2610,
      "▁vitamin": 2611,
      "▁humans": 2612,
      "▁mom": 2613,
      "▁Taliban": 2614,
      "▁mouth": 2615,
      "▁bench": 2616,
      "▁display": 2617,
      "▁opening": 2618,
      "ress": 2619,
      "▁audience": 2620,
      "▁Due": 2621,
      "ran": 2622,
      "megapixel": 2623,
      "▁sit": 2624,
      "▁fled": 2625,
      "▁winning": 2626,
      "▁List": 2627,
      "▁follows": 2628,
      "▁generation": 2629,
      "▁Sonia": 2630,
      "▁votes": 2631,
      "▁inquiry": 2632,
      "▁Sunday": 2633,
      "▁surface": 2634,
      "▁contain": 2635,
      "▁hurt": 2636,
      "▁helpful": 2637,
      "▁IT": 2638,
      "▁actions": 2639,
      "▁Banerjee": 2640,
      "▁constituency": 2641,
      "▁imp": 2642,
      "▁suspended": 2643,
      "▁Ahmed": 2644,
      "▁fruit": 2645,
      "pl": 2646,
      "▁acting": 2647,
      "▁length": 2648,
      "▁everybody": 2649,
      "▁anyway": 2650,
      "▁Monday": 2651,
      "▁begun": 2652,
      "ta": 2653,
      "▁dog": 2654,
      "▁supported": 2655,
      "▁manner": 2656,
      "▁Dhoni": 2657,
      "▁Cook": 2658,
      "▁bail": 2659,
      "▁destroyed": 2660,
      "ites": 2661,
      "▁Prasad": 2662,
      "▁News": 2663,
      "▁connect": 2664,
      "▁Se": 2665,
      "ged": 2666,
      "▁advantage": 2667,
      "ep": 2668,
      "▁victims": 2669,
      "ley": 2670,
      "▁San": 2671,
      "▁2009": 2672,
      "▁soft": 2673,
      "▁target": 2674,
      "▁estimated": 2675,
      "▁educational": 2676,
      "▁clothes": 2677,
      "▁ad": 2678,
      "▁flow": 2679,
      "▁nine": 2680,
      "▁greatest": 2681,
      "▁alcohol": 2682,
      "▁Civil": 2683,
      "▁medium": 2684,
      "▁ongoing": 2685,
      "▁base": 2686,
      "▁Washington": 2687,
      "▁scared": 2688,
      "ging": 2689,
      "▁cur": 2690,
      "▁Him": 2691,
      "la": 2692,
      "▁electricity": 2693,
      "▁Akshay": 2694,
      "▁widely": 2695,
      "▁z": 2696,
      "▁sought": 2697,
      "▁u": 2698,
      "▁implemented": 2699,
      "▁relief": 2700,
      "▁achieved": 2701,
      "▁liked": 2702,
      "▁chairman": 2703,
      "▁disc": 2704,
      "▁none": 2705,
      "▁friendly": 2706,
      "▁ban": 2707,
      "▁trains": 2708,
      "▁36": 2709,
      "▁Bangalore": 2710,
      "ush": 2711,
      "▁flight": 2712,
      "▁scientific": 2713,
      "▁pro": 2714,
      "▁manufacturing": 2715,
      "▁extended": 2716,
      "▁White": 2717,
      "▁units": 2718,
      "▁wash": 2719,
      "▁worse": 2720,
      "com": 2721,
      "▁Goa": 2722,
      "▁broke": 2723,
      "▁double": 2724,
      "ute": 2725,
      "▁dance": 2726,
      "▁Use": 2727,
      "▁overall": 2728,
      "▁apps": 2729,
      "▁wall": 2730,
      "▁Senior": 2731,
      "▁tables": 2732,
      "▁ingredients": 2733,
      "▁noted": 2734,
      "▁registration": 2735,
      "▁Look": 2736,
      "▁tools": 2737,
      "▁possibility": 2738,
      "▁deployed": 2739,
      "▁whatever": 2740,
      "▁maybe": 2741,
      "▁experts": 2742,
      "▁host": 2743,
      "▁mistake": 2744,
      "▁claims": 2745,
      "▁Italy": 2746,
      "red": 2747,
      "▁Great": 2748,
      "ob": 2749,
      "▁Britain": 2750,
      "▁contest": 2751,
      "▁nobody": 2752,
      "▁scheduled": 2753,
      "▁clearly": 2754,
      "▁pe": 2755,
      "▁waste": 2756,
      "▁floor": 2757,
      "▁sharing": 2758,
      "▁tough": 2759,
      "▁2010": 2760,
      "iah": 2761,
      "▁tool": 2762,
      "▁Section": 2763,
      "▁Apply": 2764,
      "▁fat": 2765,
      "▁criminal": 2766,
      "▁calls": 2767,
      "ire": 2768,
      "▁debut": 2769,
      "▁track": 2770,
      "▁concept": 2771,
      "▁banned": 2772,
      "ries": 2773,
      "MP": 2774,
      "▁rainfall": 2775,
      "▁fuel": 2776,
      "▁lockdown": 2777,
      "▁joy": 2778,
      "▁score": 2779,
      "▁vision": 2780,
      "▁Games": 2781,
      "ma": 2782,
      "▁marks": 2783,
      "ered": 2784,
      "▁Sushant": 2785,
      "▁vice": 2786,
      "▁Rajya": 2787,
      "ada": 2788,
      "▁secure": 2789,
      "▁described": 2790,
      "▁busy": 2791,
      "▁detained": 2792,
      "▁gain": 2793,
      "▁Par": 2794,
      "▁Keep": 2795,
      "▁Sc": 2796,
      "▁Railway": 2797,
      "▁decades": 2798,
      "▁Ah": 2799,
      "▁plastic": 2800,
      "RE": 2801,
      "▁conduct": 2802,
      "▁BCCI": 2803,
      "▁Dh": 2804,
      "▁park": 2805,
      "▁secret": 2806,
      "▁hundred": 2807,
      "▁sections": 2808,
      "▁tomorrow": 2809,
      "▁respond": 2810,
      "▁Odisha": 2811,
      "▁values": 2812,
      "▁installed": 2813,
      "ame": 2814,
      "▁seeing": 2815,
      "▁Farmers": 2816,
      "▁uses": 2817,
      "▁trouble": 2818,
      "▁silver": 2819,
      "▁saved": 2820,
      "▁referred": 2821,
      "▁asking": 2822,
      "iting": 2823,
      "▁perform": 2824,
      "▁Son": 2825,
      "▁African": 2826,
      "izing": 2827,
      "▁atmosphere": 2828,
      "▁Dad": 2829,
      "▁coach": 2830,
      "▁stations": 2831,
      "▁bl": 2832,
      "▁differences": 2833,
      "isation": 2834,
      "▁mass": 2835,
      "ising": 2836,
      "▁protests": 2837,
      "▁rising": 2838,
      "ase": 2839,
      "▁unknown": 2840,
      "▁Rukh": 2841,
      "▁Islamic": 2842,
      "▁adults": 2843,
      "▁watching": 2844,
      "▁solutions": 2845,
      "▁massive": 2846,
      "mer": 2847,
      "▁sweet": 2848,
      "▁alliance": 2849,
      "▁Mal": 2850,
      "▁Officer": 2851,
      "ished": 2852,
      "▁angry": 2853,
      "▁Get": 2854,
      "▁transfer": 2855,
      "▁quick": 2856,
      "▁immediate": 2857,
      "end": 2858,
      "▁37": 2859,
      "▁appreciated": 2860,
      "▁Olympics": 2861,
      "▁Mother": 2862,
      "▁forest": 2863,
      "▁awards": 2864,
      "▁prepare": 2865,
      "▁medal": 2866,
      "▁purposes": 2867,
      "▁abroad": 2868,
      "▁properly": 2869,
      "ail": 2870,
      "▁excited": 2871,
      "▁smart": 2872,
      "wal": 2873,
      "▁Maybe": 2874,
      "▁experienced": 2875,
      "▁tweet": 2876,
      "OT": 2877,
      "▁stands": 2878,
      "ne": 2879,
      "▁Sam": 2880,
      "▁33": 2881,
      "▁nations": 2882,
      "▁incidents": 2883,
      "▁talked": 2884,
      "▁Ministers": 2885,
      "▁diabetes": 2886,
      "▁eventually": 2887,
      "▁acid": 2888,
      "▁keeping": 2889,
      "li": 2890,
      "▁villages": 2891,
      "▁urged": 2892,
      "▁plenty": 2893,
      "▁sky": 2894,
      "▁bath": 2895,
      "▁Thanks": 2896,
      "▁butter": 2897,
      "▁driving": 2898,
      "▁relevant": 2899,
      "▁approximately": 2900,
      "ps": 2901,
      "ce": 2902,
      "ys": 2903,
      "▁detailed": 2904,
      "▁colleges": 2905,
      "▁Su": 2906,
      "▁sm": 2907,
      "▁contract": 2908,
      "ika": 2909,
      "▁CEO": 2910,
      "▁collection": 2911,
      "▁flour": 2912,
      "brx_Deva": 2913,
      "▁exchange": 2914,
      "▁analysis": 2915,
      "▁Team": 2916,
      "▁millions": 2917,
      "▁shouldn": 2918,
      "▁Additionally": 2919,
      "▁although": 2920,
      "▁honest": 2921,
      "▁injury": 2922,
      "▁industrial": 2923,
      "▁spokesperson": 2924,
      "iz": 2925,
      "▁GST": 2926,
      "▁crucial": 2927,
      "ell": 2928,
      "▁Japanese": 2929,
      "▁determine": 2930,
      "▁showed": 2931,
      "▁attacked": 2932,
      "▁Kingdom": 2933,
      "▁Fire": 2934,
      "▁RAM": 2935,
      "▁seeking": 2936,
      "▁signs": 2937,
      "ink": 2938,
      "▁Krishna": 2939,
      "▁thus": 2940,
      "ber": 2941,
      "▁tested": 2942,
      "▁defence": 2943,
      "▁buildings": 2944,
      "▁tourists": 2945,
      "▁classes": 2946,
      "▁Nothing": 2947,
      "▁owner": 2948,
      "▁participants": 2949,
      "▁allegedly": 2950,
      "▁Thus": 2951,
      "ew": 2952,
      "aid": 2953,
      "▁influence": 2954,
      "▁bright": 2955,
      "▁cast": 2956,
      "ters": 2957,
      "▁select": 2958,
      "▁Opposition": 2959,
      "▁caught": 2960,
      "▁Management": 2961,
      "▁#": 2962,
      "▁window": 2963,
      "▁rally": 2964,
      "▁facility": 2965,
      "▁trans": 2966,
      "▁false": 2967,
      "▁spirit": 2968,
      "▁reportedly": 2969,
      "▁port": 2970,
      "agar": 2971,
      "▁nuclear": 2972,
      "▁shut": 2973,
      "▁granted": 2974,
      "▁promote": 2975,
      "▁shops": 2976,
      "▁mark": 2977,
      "▁organised": 2978,
      "▁par": 2979,
      "ied": 2980,
      "▁Rajput": 2981,
      "▁strategy": 2982,
      "▁straight": 2983,
      "▁GB": 2984,
      "▁undergoing": 2985,
      "▁orders": 2986,
      "▁proposal": 2987,
      "▁tour": 2988,
      "▁mission": 2989,
      "▁bathroom": 2990,
      "▁Brazil": 2991,
      "0": 2992,
      "▁Americans": 2993,
      "let": 2994,
      "▁Comp": 2995,
      "ias": 2996,
      "▁rape": 2997,
      "▁rear": 2998,
      "50": 2999,
      "▁suggestions": 3000,
      "▁Wi": 3001,
      "▁fair": 3002,
      "▁truck": 3003,
      "▁Candidates": 3004,
      "▁entry": 3005,
      "▁producer": 3006,
      "▁Paris": 3007,
      "hes": 3008,
      "▁Ne": 3009,
      "▁channel": 3010,
      "▁treat": 3011,
      "▁standing": 3012,
      "▁taste": 3013,
      "▁Art": 3014,
      "▁daughters": 3015,
      "▁listed": 3016,
      "▁except": 3017,
      "AN": 3018,
      "ax": 3019,
      "▁ICC": 3020,
      "▁beneficial": 3021,
      "▁34": 3022,
      "me": 3023,
      "▁planned": 3024,
      "▁En": 3025,
      "▁terrorist": 3026,
      "▁appears": 3027,
      "▁lines": 3028,
      "▁plane": 3029,
      "▁seek": 3030,
      "▁Corona": 3031,
      "▁permission": 3032,
      "ank": 3033,
      "▁Contact": 3034,
      "▁Sir": 3035,
      "▁entirely": 3036,
      "▁meat": 3037,
      "▁headed": 3038,
      "▁scientists": 3039,
      "▁beat": 3040,
      "ust": 3041,
      "▁Note": 3042,
      "▁lies": 3043,
      "▁identify": 3044,
      "ared": 3045,
      "▁crores": 3046,
      "▁judge": 3047,
      "▁ha": 3048,
      "▁willing": 3049,
      "▁balance": 3050,
      "▁micro": 3051,
      "▁soil": 3052,
      "▁Bible": 3053,
      "▁400": 3054,
      "▁Christian": 3055,
      "▁Arvind": 3056,
      "▁Does": 3057,
      "▁height": 3058,
      "▁occurs": 3059,
      "▁gift": 3060,
      "▁harm": 3061,
      "▁onions": 3062,
      "▁island": 3063,
      "▁Inter": 3064,
      "▁threat": 3065,
      "▁chemical": 3066,
      "▁draw": 3067,
      "▁Along": 3068,
      "▁Five": 3069,
      "▁Fund": 3070,
      "▁engineering": 3071,
      "▁Ahmedabad": 3072,
      "▁Pune": 3073,
      "▁CCTV": 3074,
      "▁covered": 3075,
      "▁Step": 3076,
      "▁carefully": 3077,
      "▁fit": 3078,
      "10": 3079,
      "Fi": 3080,
      "rat": 3081,
      "ual": 3082,
      "▁Olympic": 3083,
      "▁guidelines": 3084,
      "ators": 3085,
      "▁church": 3086,
      "▁dreams": 3087,
      "▁Amitabh": 3088,
      "▁48": 3089,
      "▁bar": 3090,
      "ama": 3091,
      "▁constantly": 3092,
      "▁NCP": 3093,
      "▁Sun": 3094,
      "▁resolution": 3095,
      "▁anniversary": 3096,
      "▁iron": 3097,
      "uddin": 3098,
      "▁Year": 3099,
      "qu": 3100,
      "▁spoken": 3101,
      "▁soul": 3102,
      "▁regularly": 3103,
      "ec": 3104,
      "▁debate": 3105,
      "▁mainly": 3106,
      "▁Kannada": 3107,
      "▁favorite": 3108,
      "▁improved": 3109,
      "▁ro": 3110,
      "▁Tuesday": 3111,
      "▁command": 3112,
      "▁=": 3113,
      "ji": 3114,
      "▁functions": 3115,
      "app": 3116,
      "ves": 3117,
      "▁killing": 3118,
      "▁charged": 3119,
      "ering": 3120,
      "▁illegal": 3121,
      "▁alive": 3122,
      "▁Ph": 3123,
      "▁desire": 3124,
      "▁Big": 3125,
      "▁failure": 3126,
      "▁mis": 3127,
      "▁dedicated": 3128,
      "▁Rajnath": 3129,
      "▁leads": 3130,
      "▁proposed": 3131,
      "▁winners": 3132,
      "▁rep": 3133,
      "sh": 3134,
      "ily": 3135,
      "▁fifth": 3136,
      "ier": 3137,
      "▁programmes": 3138,
      "▁Ajay": 3139,
      "▁sick": 3140,
      "▁historical": 3141,
      "▁meant": 3142,
      "ung": 3143,
      "▁2000": 3144,
      "▁Railways": 3145,
      "▁di": 3146,
      "▁2007": 3147,
      "▁ball": 3148,
      "ER": 3149,
      "▁holiday": 3150,
      "▁stuff": 3151,
      "▁observed": 3152,
      "▁corruption": 3153,
      "▁appeal": 3154,
      "▁Chopra": 3155,
      "▁typically": 3156,
      "▁surgery": 3157,
      "ving": 3158,
      "▁terrorism": 3159,
      "af": 3160,
      "▁everywhere": 3161,
      "ong": 3162,
      "▁Out": 3163,
      "▁beyond": 3164,
      "▁Saturday": 3165,
      "▁Anand": 3166,
      "▁partnership": 3167,
      "hu": 3168,
      "▁ar": 3169,
      "men": 3170,
      "▁wave": 3171,
      "▁pollution": 3172,
      "▁Australian": 3173,
      "▁stone": 3174,
      "act": 3175,
      "▁reaction": 3176,
      "▁guy": 3177,
      "▁alert": 3178,
      "▁Wednesday": 3179,
      "abad": 3180,
      "▁mostly": 3181,
      "▁Arabia": 3182,
      "▁Pay": 3183,
      "▁pieces": 3184,
      "▁Gold": 3185,
      "ability": 3186,
      "AT": 3187,
      "io": 3188,
      "▁enjoyed": 3189,
      "▁applied": 3190,
      "▁organizations": 3191,
      "▁fashion": 3192,
      "▁Mamata": 3193,
      "▁spiritual": 3194,
      "▁gonna": 3195,
      "▁foot": 3196,
      "▁loves": 3197,
      "▁Click": 3198,
      "▁Mohammad": 3199,
      "▁rescue": 3200,
      "▁holds": 3201,
      "▁California": 3202,
      "▁ill": 3203,
      "ake": 3204,
      "▁cinema": 3205,
      "▁Airport": 3206,
      "▁}": 3207,
      "▁Bhatt": 3208,
      "▁Tax": 3209,
      "ides": 3210,
      "ification": 3211,
      "▁Tata": 3212,
      "▁independence": 3213,
      "▁innings": 3214,
      "▁searching": 3215,
      "▁east": 3216,
      "▁recovery": 3217,
      "▁wind": 3218,
      "▁Free": 3219,
      "▁instructions": 3220,
      "▁regional": 3221,
      "ational": 3222,
      "▁Pat": 3223,
      "▁minor": 3224,
      "▁consists": 3225,
      "▁strict": 3226,
      "▁seeds": 3227,
      "▁singer": 3228,
      "▁struggle": 3229,
      "▁loans": 3230,
      "▁pl": 3231,
      "▁factor": 3232,
      "▁advised": 3233,
      "▁rice": 3234,
      "▁Very": 3235,
      "▁terror": 3236,
      "▁Actress": 3237,
      "▁ideal": 3238,
      "▁Western": 3239,
      "▁Blood": 3240,
      "▁leaving": 3241,
      "▁taught": 3242,
      "▁foundation": 3243,
      "▁Hindus": 3244,
      "▁Sports": 3245,
      "▁setting": 3246,
      "▁dad": 3247,
      "ron": 3248,
      "▁aspects": 3249,
      "▁conversation": 3250,
      "▁priority": 3251,
      "▁regions": 3252,
      "▁weapons": 3253,
      "▁Contin": 3254,
      "▁flowers": 3255,
      "ify": 3256,
      "▁kg": 3257,
      "▁format": 3258,
      "▁fields": 3259,
      "ler": 3260,
      "▁obtained": 3261,
      "▁childhood": 3262,
      "ey": 3263,
      "ified": 3264,
      "▁stood": 3265,
      "▁agricultural": 3266,
      "▁selection": 3267,
      "▁{": 3268,
      "▁residence": 3269,
      "oo": 3270,
      "▁Co": 3271,
      "▁Turkey": 3272,
      "▁eggs": 3273,
      "▁fixed": 3274,
      "▁64": 3275,
      "▁faced": 3276,
      "▁EU": 3277,
      "ita": 3278,
      "▁Sur": 3279,
      "▁literature": 3280,
      "▁requested": 3281,
      "▁initial": 3282,
      "▁larger": 3283,
      "her": 3284,
      "▁selling": 3285,
      "▁experiences": 3286,
      "▁strengthen": 3287,
      "adi": 3288,
      "▁rare": 3289,
      "▁glass": 3290,
      "▁territory": 3291,
      "▁quiet": 3292,
      "▁engaged": 3293,
      "▁club": 3294,
      "▁Next": 3295,
      "▁authority": 3296,
      "▁relationships": 3297,
      "▁shares": 3298,
      "▁unable": 3299,
      "ening": 3300,
      "▁Janata": 3301,
      "▁seconds": 3302,
      "▁Music": 3303,
      "▁despite": 3304,
      "uc": 3305,
      "▁street": 3306,
      "▁Part": 3307,
      "▁raise": 3308,
      "▁suffer": 3309,
      "▁everyday": 3310,
      "▁Green": 3311,
      "vi": 3312,
      "▁register": 3313,
      "▁Sw": 3314,
      "▁shape": 3315,
      "▁SC": 3316,
      "▁Authority": 3317,
      "mail": 3318,
      "▁permanent": 3319,
      "▁relatives": 3320,
      "ably": 3321,
      "▁express": 3322,
      "▁flights": 3323,
      "▁vital": 3324,
      "▁guests": 3325,
      "ich": 3326,
      "▁radio": 3327,
      "▁ruling": 3328,
      "▁cross": 3329,
      "itions": 3330,
      "▁Bel": 3331,
      "▁Academy": 3332,
      "▁ab": 3333,
      "▁block": 3334,
      "▁founded": 3335,
      "▁forever": 3336,
      "▁Mexico": 3337,
      "▁buying": 3338,
      "▁prison": 3339,
      "▁Limited": 3340,
      "▁infected": 3341,
      "▁meetings": 3342,
      "▁te": 3343,
      "▁handle": 3344,
      "▁initiated": 3345,
      "▁Deepika": 3346,
      "art": 3347,
      "▁symbol": 3348,
      "▁Nath": 3349,
      "land": 3350,
      "▁ind": 3351,
      "▁concerns": 3352,
      "▁imposed": 3353,
      "▁document": 3354,
      "▁perhaps": 3355,
      "ane": 3356,
      "▁records": 3357,
      "▁policies": 3358,
      "▁log": 3359,
      "▁rapidly": 3360,
      "▁guess": 3361,
      "▁bought": 3362,
      "▁Thursday": 3363,
      "era": 3364,
      "▁mode": 3365,
      "ents": 3366,
      "▁Spain": 3367,
      "▁appearance": 3368,
      "▁Play": 3369,
      "▁manage": 3370,
      "▁approval": 3371,
      "▁Microsoft": 3372,
      "▁urban": 3373,
      "▁Dubai": 3374,
      "▁combination": 3375,
      "▁standards": 3376,
      "▁Engineering": 3377,
      "▁interests": 3378,
      "▁Arun": 3379,
      "ble": 3380,
      "▁65": 3381,
      "▁delivery": 3382,
      "▁younger": 3383,
      "▁colours": 3384,
      "▁organized": 3385,
      "▁boys": 3386,
      "▁smile": 3387,
      "ton": 3388,
      "▁teaching": 3389,
      "ological": 3390,
      "▁filled": 3391,
      "▁luck": 3392,
      "Q": 3393,
      "▁Cut": 3394,
      "▁awareness": 3395,
      "▁advantages": 3396,
      "▁implementation": 3397,
      "▁Pan": 3398,
      "▁birds": 3399,
      "▁Code": 3400,
      "▁Paul": 3401,
      "▁eligible": 3402,
      "▁Christmas": 3403,
      "▁centres": 3404,
      "▁se": 3405,
      "▁slowly": 3406,
      "line": 3407,
      "▁topic": 3408,
      "itis": 3409,
      "▁HD": 3410,
      "▁stable": 3411,
      "▁contribution": 3412,
      "▁certificate": 3413,
      "▁components": 3414,
      "▁Jay": 3415,
      "▁vitamins": 3416,
      "▁Malayalam": 3417,
      "▁le": 3418,
      "▁hundreds": 3419,
      "▁actual": 3420,
      "▁James": 3421,
      "ru": 3422,
      "▁Station": 3423,
      "▁dispute": 3424,
      "▁combined": 3425,
      "▁god": 3426,
      "▁notification": 3427,
      "▁route": 3428,
      "▁instance": 3429,
      "▁detail": 3430,
      "▁Anushka": 3431,
      "ases": 3432,
      "▁Com": 3433,
      "▁Car": 3434,
      "▁piece": 3435,
      "▁Blue": 3436,
      "ek": 3437,
      "▁characters": 3438,
      "▁ODI": 3439,
      "rate": 3440,
      "▁previously": 3441,
      "▁grown": 3442,
      "thing": 3443,
      "▁aim": 3444,
      "▁medicines": 3445,
      "▁Bre": 3446,
      "▁square": 3447,
      "▁yellow": 3448,
      "▁depending": 3449,
      "apur": 3450,
      "▁equipped": 3451,
      "▁websites": 3452,
      "▁Sea": 3453,
      "▁successfully": 3454,
      "▁shop": 3455,
      "▁affects": 3456,
      "▁Like": 3457,
      "▁Kar": 3458,
      "▁Le": 3459,
      "▁addressed": 3460,
      "▁survey": 3461,
      "▁owners": 3462,
      "▁cabinet": 3463,
      "▁offering": 3464,
      "▁Ashok": 3465,
      "ways": 3466,
      "▁rupees": 3467,
      "ome": 3468,
      "▁calling": 3469,
      "▁circumstances": 3470,
      "▁tourism": 3471,
      "dy": 3472,
      "▁Awards": 3473,
      "▁seemed": 3474,
      "▁toll": 3475,
      "▁Ma": 3476,
      "ured": 3477,
      "arm": 3478,
      "gom_Deva": 3479,
      "▁identity": 3480,
      "▁farm": 3481,
      "▁artist": 3482,
      "▁stayed": 3483,
      "▁helping": 3484,
      "▁recommend": 3485,
      "▁tradition": 3486,
      "▁AP": 3487,
      "▁exp": 3488,
      "ces": 3489,
      "▁Class": 3490,
      "▁Organization": 3491,
      "▁race": 3492,
      "amin": 3493,
      "▁consumption": 3494,
      "▁courses": 3495,
      "▁Action": 3496,
      "▁troops": 3497,
      "▁moon": 3498,
      "▁supposed": 3499,
      "▁likes": 3500,
      "TI": 3501,
      "▁38": 3502,
      "▁studying": 3503,
      "▁pick": 3504,
      "▁external": 3505,
      "▁Pal": 3506,
      "ox": 3507,
      "▁agencies": 3508,
      "▁bear": 3509,
      "▁Singapore": 3510,
      "▁mine": 3511,
      "hip": 3512,
      "▁Almost": 3513,
      "iness": 3514,
      "▁guest": 3515,
      "▁offices": 3516,
      "▁collected": 3517,
      "▁Egypt": 3518,
      "▁fix": 3519,
      "▁consult": 3520,
      "▁calm": 3521,
      "▁celebrate": 3522,
      "▁2006": 3523,
      "▁explained": 3524,
      "▁accompanied": 3525,
      "▁Tell": 3526,
      "▁cricketer": 3527,
      "arg": 3528,
      "anna": 3529,
      "jit": 3530,
      "▁RBI": 3531,
      "▁Sa": 3532,
      "▁proof": 3533,
      "▁ac": 3534,
      "▁background": 3535,
      "▁chosen": 3536,
      "▁Abdul": 3537,
      "▁illness": 3538,
      "▁acted": 3539,
      "▁respectively": 3540,
      "▁44": 3541,
      "▁prove": 3542,
      "▁electronic": 3543,
      "▁west": 3544,
      "▁linked": 3545,
      "▁Economic": 3546,
      "▁manager": 3547,
      "▁aid": 3548,
      "▁Global": 3549,
      "▁guilty": 3550,
      "▁danger": 3551,
      "▁bowl": 3552,
      "▁creation": 3553,
      "▁inc": 3554,
      "und": 3555,
      "▁healthcare": 3556,
      "▁confident": 3557,
      "ST": 3558,
      "▁wearing": 3559,
      "au": 3560,
      "▁master": 3561,
      "anda": 3562,
      "▁submit": 3563,
      "ost": 3564,
      "▁Yet": 3565,
      "▁Min": 3566,
      "▁gun": 3567,
      "▁alternative": 3568,
      "▁Center": 3569,
      "▁citizen": 3570,
      "▁Try": 3571,
      "▁anybody": 3572,
      "▁Chand": 3573,
      "▁Consult": 3574,
      "aries": 3575,
      "▁complicated": 3576,
      "▁scale": 3577,
      "▁Beautiful": 3578,
      "▁Imran": 3579,
      "▁capable": 3580,
      "▁ship": 3581,
      "▁Sat": 3582,
      "anj": 3583,
      "▁organisation": 3584,
      "amp": 3585,
      "▁constant": 3586,
      ".5": 3587,
      "wa": 3588,
      "▁heaven": 3589,
      "▁finance": 3590,
      "▁Aamir": 3591,
      "▁tips": 3592,
      "▁theme": 3593,
      "▁IS": 3594,
      "▁sa": 3595,
      "illa": 3596,
      "▁Sheikh": 3597,
      "▁Work": 3598,
      "▁carrying": 3599,
      "▁multi": 3600,
      "▁parking": 3601,
      "▁History": 3602,
      "▁union": 3603,
      "▁Chandra": 3604,
      "▁male": 3605,
      "▁revenue": 3606,
      "▁Spanish": 3607,
      "▁boost": 3608,
      "12": 3609,
      "▁worst": 3610,
      "air": 3611,
      "▁42": 3612,
      "▁strike": 3613,
      "▁restrictions": 3614,
      "▁conflict": 3615,
      "▁Second": 3616,
      "▁processing": 3617,
      "▁supporting": 3618,
      "▁studied": 3619,
      "▁cancelled": 3620,
      "▁significantly": 3621,
      "atory": 3622,
      "▁Policy": 3623,
      "▁Mohammed": 3624,
      "▁Based": 3625,
      "▁awesome": 3626,
      "▁Star": 3627,
      "ok": 3628,
      "▁breast": 3629,
      "▁55": 3630,
      "▁Web": 3631,
      "▁measure": 3632,
      "▁Despite": 3633,
      "▁Shetty": 3634,
      "▁lawyer": 3635,
      "▁prior": 3636,
      "▁schedule": 3637,
      "▁tomatoes": 3638,
      "▁mid": 3639,
      "▁recognized": 3640,
      "▁determined": 3641,
      "▁facts": 3642,
      "▁meal": 3643,
      "▁thy": 3644,
      "▁Mac": 3645,
      "ays": 3646,
      "\\": 3647,
      "arn": 3648,
      "▁neither": 3649,
      "▁recommendations": 3650,
      "▁Book": 3651,
      "▁Mark": 3652,
      "▁losing": 3653,
      "▁Gu": 3654,
      "▁audio": 3655,
      "▁Us": 3656,
      "▁George": 3657,
      "▁processes": 3658,
      "▁holding": 3659,
      "▁silent": 3660,
      "▁Alia": 3661,
      "acy": 3662,
      "▁mistakes": 3663,
      "ination": 3664,
      "▁supports": 3665,
      "▁bi": 3666,
      "▁Bo": 3667,
      "▁worship": 3668,
      "▁Dal": 3669,
      "▁situations": 3670,
      "▁pages": 3671,
      "▁depend": 3672,
      "▁laid": 3673,
      "▁sisters": 3674,
      "▁meters": 3675,
      "▁okay": 3676,
      "▁trading": 3677,
      "▁IP": 3678,
      "▁sport": 3679,
      "rooms": 3680,
      "▁cameras": 3681,
      "▁technologies": 3682,
      "▁valid": 3683,
      "co": 3684,
      "▁fault": 3685,
      "▁Further": 3686,
      "▁Temple": 3687,
      "▁slightly": 3688,
      "▁exact": 3689,
      "ren": 3690,
      "▁bike": 3691,
      "▁ourselves": 3692,
      "▁AAP": 3693,
      "▁rec": 3694,
      "by": 3695,
      "▁officially": 3696,
      "▁Times": 3697,
      "▁drop": 3698,
      "iest": 3699,
      "▁lovely": 3700,
      "▁distribution": 3701,
      "▁gathered": 3702,
      "▁historic": 3703,
      "▁sn": 3704,
      "▁emotional": 3705,
      "▁ID": 3706,
      "▁categories": 3707,
      "▁sal": 3708,
      "ances": 3709,
      "▁Ltd": 3710,
      "▁teach": 3711,
      "▁restaurant": 3712,
      "▁exciting": 3713,
      "ras": 3714,
      "000": 3715,
      "▁River": 3716,
      "oms": 3717,
      "ata": 3718,
      "▁lifestyle": 3719,
      "▁encounter": 3720,
      "atic": 3721,
      "▁Check": 3722,
      "row": 3723,
      "right": 3724,
      "ently": 3725,
      "▁button": 3726,
      "▁slow": 3727,
      "ices": 3728,
      "▁stages": 3729,
      "▁Recently": 3730,
      "▁plea": 3731,
      "▁messages": 3732,
      "ams": 3733,
      "▁sorry": 3734,
      "▁respective": 3735,
      "▁error": 3736,
      "▁Nar": 3737,
      "▁broken": 3738,
      "▁southern": 3739,
      "▁poll": 3740,
      "att": 3741,
      "▁mountain": 3742,
      "ct": 3743,
      "ient": 3744,
      "▁Kal": 3745,
      "▁Pawar": 3746,
      "▁sk": 3747,
      "hen": 3748,
      "▁feels": 3749,
      "▁Nav": 3750,
      "▁executive": 3751,
      "▁investigated": 3752,
      "▁Bab": 3753,
      "▁environmental": 3754,
      "▁locals": 3755,
      "▁researchers": 3756,
      "▁honey": 3757,
      "▁federal": 3758,
      "▁panel": 3759,
      "▁advance": 3760,
      "▁mask": 3761,
      "▁understood": 3762,
      "▁Per": 3763,
      "▁theory": 3764,
      "IC": 3765,
      "▁resolve": 3766,
      "▁2022": 3767,
      "▁wounded": 3768,
      "▁initiative": 3769,
      "ives": 3770,
      "CA": 3771,
      "▁install": 3772,
      "▁Royal": 3773,
      "▁besides": 3774,
      "▁smooth": 3775,
      "▁bilateral": 3776,
      "▁Obama": 3777,
      "▁hate": 3778,
      "11": 3779,
      "ctions": 3780,
      "▁profit": 3781,
      "▁carbon": 3782,
      "▁consumers": 3783,
      "▁update": 3784,
      "▁Dhaka": 3785,
      "▁olive": 3786,
      "▁Ag": 3787,
      "▁Chhattisgarh": 3788,
      "▁fan": 3789,
      "▁Back": 3790,
      "vers": 3791,
      "▁industries": 3792,
      "▁MS": 3793,
      "▁grand": 3794,
      "▁Watch": 3795,
      "lic": 3796,
      "▁links": 3797,
      "▁Sp": 3798,
      "▁sensor": 3799,
      "▁39": 3800,
      "the": 3801,
      "▁object": 3802,
      "▁Rahman": 3803,
      "▁shoot": 3804,
      "▁advanced": 3805,
      "▁egg": 3806,
      "▁Youth": 3807,
      "▁lemon": 3808,
      "ids": 3809,
      "▁sustained": 3810,
      "▁lie": 3811,
      "▁Finally": 3812,
      "▁succeed": 3813,
      "▁discussions": 3814,
      "ja": 3815,
      "▁difficulties": 3816,
      "▁platforms": 3817,
      "▁Media": 3818,
      "▁Rights": 3819,
      "▁Ge": 3820,
      "▁western": 3821,
      "▁faster": 3822,
      "▁Heavy": 3823,
      "ena": 3824,
      "▁arms": 3825,
      "▁planet": 3826,
      "▁feelings": 3827,
      "▁Navy": 3828,
      "▁2004": 3829,
      "▁partners": 3830,
      "▁coast": 3831,
      "▁behavior": 3832,
      "▁improving": 3833,
      "▁challenging": 3834,
      "▁copy": 3835,
      "▁surprise": 3836,
      "▁satisfied": 3837,
      "▁Sachin": 3838,
      "▁Yoga": 3839,
      "▁northern": 3840,
      "▁dinner": 3841,
      "▁Yogi": 3842,
      "▁opposed": 3843,
      "▁consequences": 3844,
      "▁metal": 3845,
      "▁vaccination": 3846,
      "ka": 3847,
      "▁discovered": 3848,
      "ition": 3849,
      "▁demands": 3850,
      "rit": 3851,
      "▁Know": 3852,
      "▁visitors": 3853,
      "▁solar": 3854,
      "▁crowd": 3855,
      "▁gr": 3856,
      "▁combine": 3857,
      "▁universities": 3858,
      "▁Transport": 3859,
      "▁49": 3860,
      "▁System": 3861,
      "▁origin": 3862,
      "ody": 3863,
      "speed": 3864,
      "▁pleased": 3865,
      "ows": 3866,
      "▁package": 3867,
      "▁reliable": 3868,
      "▁defeat": 3869,
      "▁iOS": 3870,
      "▁Data": 3871,
      "▁centuries": 3872,
      "▁controversy": 3873,
      "▁picked": 3874,
      "▁bat": 3875,
      "▁JD": 3876,
      "▁forced": 3877,
      "▁Vit": 3878,
      "▁Jharkhand": 3879,
      "▁commonly": 3880,
      "▁Start": 3881,
      "▁output": 3882,
      "▁Suresh": 3883,
      "▁prop": 3884,
      "med": 3885,
      "▁Nagar": 3886,
      "▁statements": 3887,
      "▁Ramesh": 3888,
      "▁accidents": 3889,
      "▁employee": 3890,
      "▁honour": 3891,
      "▁Pl": 3892,
      "▁peaceful": 3893,
      "▁composed": 3894,
      "▁resigned": 3895,
      "▁2005": 3896,
      "ze": 3897,
      "▁Lal": 3898,
      "▁Kareena": 3899,
      "▁grateful": 3900,
      "▁brown": 3901,
      ".1": 3902,
      "▁Gur": 3903,
      "related": 3904,
      "ils": 3905,
      "urs": 3906,
      "▁su": 3907,
      "▁PC": 3908,
      "rop": 3909,
      "rd": 3910,
      "▁fund": 3911,
      "▁Mary": 3912,
      "▁organisations": 3913,
      "▁smaller": 3914,
      "▁journalist": 3915,
      "▁entertainment": 3916,
      "▁pray": 3917,
      "ining": 3918,
      "▁institution": 3919,
      "▁walking": 3920,
      "▁wh": 3921,
      "▁parliament": 3922,
      "asp": 3923,
      "▁Kings": 3924,
      "▁promise": 3925,
      "▁transferred": 3926,
      "▁questioned": 3927,
      "▁greatly": 3928,
      "▁Men": 3929,
      "▁risks": 3930,
      "▁Gen": 3931,
      "ration": 3932,
      "itation": 3933,
      "▁squad": 3934,
      "▁objective": 3935,
      "▁sight": 3936,
      "▁reporters": 3937,
      "▁ends": 3938,
      "ched": 3939,
      "▁complaints": 3940,
      "nder": 3941,
      "▁Im": 3942,
      "▁spending": 3943,
      "▁mort": 3944,
      "▁ticket": 3945,
      "▁defeated": 3946,
      "▁locations": 3947,
      "▁apart": 3948,
      "▁counter": 3949,
      "int": 3950,
      "ime": 3951,
      "akes": 3952,
      "▁Bharatiya": 3953,
      "▁Aadhaar": 3954,
      "▁operate": 3955,
      "▁Afghan": 3956,
      "▁Mission": 3957,
      "▁suddenly": 3958,
      "▁breath": 3959,
      "▁paste": 3960,
      "▁manufacturer": 3961,
      "ex": 3962,
      "▁representatives": 3963,
      "▁expand": 3964,
      "▁frequently": 3965,
      "▁academic": 3966,
      "▁welcomed": 3967,
      "▁guide": 3968,
      "▁basically": 3969,
      "mai_Deva": 3970,
      "fully": 3971,
      "▁van": 3972,
      "▁novel": 3973,
      "▁grew": 3974,
      "▁Remember": 3975,
      "▁delivered": 3976,
      "▁Sad": 3977,
      "level": 3978,
      "▁Adityanath": 3979,
      "▁sectors": 3980,
      "▁motor": 3981,
      "▁strongly": 3982,
      "ti": 3983,
      "▁AI": 3984,
      "▁arrangements": 3985,
      "▁hero": 3986,
      "▁250": 3987,
      "▁winner": 3988,
      "▁bridge": 3989,
      "▁Right": 3990,
      "▁practical": 3991,
      "▁Qu": 3992,
      "▁Mishra": 3993,
      "▁shocked": 3994,
      "▁Rai": 3995,
      "▁Jio": 3996,
      "▁stomach": 3997,
      "▁verdict": 3998,
      "▁lakhs": 3999,
      "▁cons": 4000,
      "▁fought": 4001,
      "▁enhance": 4002,
      "▁judicial": 4003,
      "▁intelligence": 4004,
      "▁ginger": 4005,
      "▁funny": 4006,
      "▁chances": 4007,
      "▁vaccines": 4008,
      "▁Prakash": 4009,
      "▁investors": 4010,
      "elling": 4011,
      "▁communities": 4012,
      "▁crash": 4013,
      "▁causing": 4014,
      "▁la": 4015,
      "▁expenses": 4016,
      "▁Speaking": 4017,
      "eth": 4018,
      "▁artists": 4019,
      "▁Diwali": 4020,
      "▁steel": 4021,
      "▁cheap": 4022,
      "ev": 4023,
      "▁Though": 4024,
      "▁exams": 4025,
      "▁library": 4026,
      "▁province": 4027,
      "▁Cl": 4028,
      "▁Middle": 4029,
      "AR": 4030,
      "amb": 4031,
      "▁leg": 4032,
      "▁ye": 4033,
      "▁password": 4034,
      "ches": 4035,
      "iss": 4036,
      "▁invest": 4037,
      "eb": 4038,
      "▁legs": 4039,
      "▁Himachal": 4040,
      "▁privacy": 4041,
      "▁element": 4042,
      "▁applicable": 4043,
      "▁otherwise": 4044,
      "▁WHO": 4045,
      "▁Mohan": 4046,
      "▁qu": 4047,
      "▁fundamental": 4048,
      "▁Ra": 4049,
      "▁Happy": 4050,
      "▁characteristics": 4051,
      "▁visible": 4052,
      "▁responded": 4053,
      "▁Gupta": 4054,
      "▁protesters": 4055,
      "▁guys": 4056,
      "▁schemes": 4057,
      "▁adding": 4058,
      "▁Ravi": 4059,
      "oor": 4060,
      "▁commitment": 4061,
      "▁Tokyo": 4062,
      "▁villagers": 4063,
      "yl": 4064,
      "▁therapy": 4065,
      "▁stores": 4066,
      "▁tells": 4067,
      "▁welfare": 4068,
      "▁Thiruvan": 4069,
      "▁bottom": 4070,
      "▁networks": 4071,
      "▁solved": 4072,
      "▁Mom": 4073,
      "▁proved": 4074,
      "▁Thakur": 4075,
      "▁defined": 4076,
      "▁Coronavirus": 4077,
      "ography": 4078,
      "ros": 4079,
      "▁serving": 4080,
      "▁dollars": 4081,
      "▁fever": 4082,
      "▁camp": 4083,
      "uck": 4084,
      "▁Mahatma": 4085,
      "▁MPs": 4086,
      "ON": 4087,
      "▁closely": 4088,
      "▁plus": 4089,
      "▁tired": 4090,
      "▁Was": 4091,
      "ack": 4092,
      "▁cooking": 4093,
      "▁affairs": 4094,
      "▁respons": 4095,
      "▁transportation": 4096,
      "▁cycle": 4097,
      "ck": 4098,
      "inal": 4099,
      "▁deputy": 4100,
      "▁Child": 4101,
      "▁ran": 4102,
      "▁walls": 4103,
      ".2": 4104,
      "ene": 4105,
      "▁miles": 4106,
      "▁weak": 4107,
      "▁assets": 4108,
      "▁Mo": 4109,
      "▁Kamal": 4110,
      "▁paying": 4111,
      "▁earn": 4112,
      "▁Sinha": 4113,
      "ours": 4114,
      "▁Friends": 4115,
      "ger": 4116,
      "▁commission": 4117,
      "▁Project": 4118,
      "▁monthly": 4119,
      "▁ruled": 4120,
      "ctor": 4121,
      "▁120": 4122,
      "▁sufficient": 4123,
      "▁compensation": 4124,
      "▁herself": 4125,
      "▁provisions": 4126,
      "▁courage": 4127,
      "▁ages": 4128,
      "▁oldest": 4129,
      "▁booked": 4130,
      "▁marry": 4131,
      "anthapuram": 4132,
      "▁ST": 4133,
      "▁crops": 4134,
      "▁Moreover": 4135,
      "▁Sunil": 4136,
      "▁consumer": 4137,
      "ction": 4138,
      "▁afternoon": 4139,
      "▁demanding": 4140,
      "ood": 4141,
      "rom": 4142,
      "▁focused": 4143,
      "▁dates": 4144,
      "▁Uttarakhand": 4145,
      "30": 4146,
      "▁situated": 4147,
      "▁volume": 4148,
      "oot": 4149,
      "▁toss": 4150,
      "pp": 4151,
      "▁ok": 4152,
      "▁SBI": 4153,
      "▁Rem": 4154,
      "▁Application": 4155,
      "▁dress": 4156,
      "▁Rajiv": 4157,
      "▁em": 4158,
      "▁banking": 4159,
      "▁distributed": 4160,
      "▁Sim": 4161,
      "osis": 4162,
      "▁telling": 4163,
      "ivity": 4164,
      "▁medication": 4165,
      "▁Up": 4166,
      "▁1.5": 4167,
      "▁Card": 4168,
      "▁infections": 4169,
      "▁clients": 4170,
      "▁stored": 4171,
      "▁Manmohan": 4172,
      "▁travelling": 4173,
      "▁constitution": 4174,
      "▁ordinary": 4175,
      "▁era": 4176,
      "ight": 4177,
      "▁fill": 4178,
      "▁Ranbir": 4179,
      "▁keeps": 4180,
      "▁Cre": 4181,
      "▁bigger": 4182,
      "▁Att": 4183,
      "umb": 4184,
      "▁crying": 4185,
      "▁garden": 4186,
      "▁Mahesh": 4187,
      "▁Iraq": 4188,
      "ory": 4189,
      "▁bo": 4190,
      "▁taxes": 4191,
      "▁resolved": 4192,
      "▁transmission": 4193,
      "▁convenient": 4194,
      "▁dating": 4195,
      "▁investigations": 4196,
      "oda": 4197,
      "▁dropped": 4198,
      "▁43": 4199,
      "▁relax": 4200,
      "▁Mess": 4201,
      "▁factory": 4202,
      "▁Space": 4203,
      "▁staying": 4204,
      "▁neck": 4205,
      "▁Samsung": 4206,
      "▁creative": 4207,
      "▁Prize": 4208,
      "hel": 4209,
      "▁Foundation": 4210,
      "▁initially": 4211,
      "▁wealth": 4212,
      "▁shower": 4213,
      "▁Word": 4214,
      "▁Bas": 4215,
      "▁maintained": 4216,
      "▁warning": 4217,
      "▁continuing": 4218,
      "▁permitted": 4219,
      "▁buses": 4220,
      "ains": 4221,
      "▁Nob": 4222,
      "▁museum": 4223,
      "▁El": 4224,
      "SC": 4225,
      "▁sin": 4226,
      "▁Jag": 4227,
      "▁friendship": 4228,
      "▁wild": 4229,
      "▁thick": 4230,
      "▁Conference": 4231,
      "▁inaugurated": 4232,
      "rates": 4233,
      "ave": 4234,
      "▁External": 4235,
      "▁Ranveer": 4236,
      "▁Church": 4237,
      "▁Express": 4238,
      "▁ties": 4239,
      "▁Roy": 4240,
      "▁Johnson": 4241,
      "▁holy": 4242,
      "▁wicket": 4243,
      "▁miss": 4244,
      "▁Malaysia": 4245,
      "▁AD": 4246,
      "▁Energy": 4247,
      "▁Museum": 4248,
      "▁finish": 4249,
      "▁protected": 4250,
      "▁unt": 4251,
      "▁obtain": 4252,
      "▁desired": 4253,
      "▁Everybody": 4254,
      "▁Financial": 4255,
      "▁temples": 4256,
      "▁priced": 4257,
      "oy": 4258,
      "▁Indonesia": 4259,
      "▁realize": 4260,
      "▁Nobel": 4261,
      "cer": 4262,
      "▁restaurants": 4263,
      "▁minute": 4264,
      "▁sing": 4265,
      "iled": 4266,
      "▁pop": 4267,
      "▁rivers": 4268,
      "▁yesterday": 4269,
      ".3": 4270,
      "ipur": 4271,
      "▁rose": 4272,
      "▁corona": 4273,
      "va": 4274,
      "▁possibly": 4275,
      "▁Thackeray": 4276,
      "▁rail": 4277,
      "▁Age": 4278,
      "▁devotees": 4279,
      "▁difficulty": 4280,
      "▁Inc": 4281,
      "▁finding": 4282,
      "▁IPC": 4283,
      "▁rid": 4284,
      "▁map": 4285,
      "▁ve": 4286,
      "▁Peter": 4287,
      "▁ag": 4288,
      "▁relatively": 4289,
      "▁Local": 4290,
      "▁suggested": 4291,
      "▁warned": 4292,
      "▁USB": 4293,
      "▁farmer": 4294,
      "▁anger": 4295,
      "▁Amarinder": 4296,
      "▁thoroughly": 4297,
      "▁contribute": 4298,
      "▁UAE": 4299,
      "▁producing": 4300,
      "▁visiting": 4301,
      "▁constructed": 4302,
      "▁cor": 4303,
      "▁solid": 4304,
      "▁elect": 4305,
      "▁photographs": 4306,
      "▁accurate": 4307,
      "▁Ser": 4308,
      "▁Peace": 4309,
      "ode": 4310,
      "▁Otherwise": 4311,
      "▁cholesterol": 4312,
      "▁context": 4313,
      "▁prominent": 4314,
      "SS": 4315,
      "▁Di": 4316,
      "▁Naidu": 4317,
      "▁emerged": 4318,
      "▁Independence": 4319,
      "ham": 4320,
      "uted": 4321,
      "▁masks": 4322,
      "▁Karan": 4323,
      "▁controlled": 4324,
      "▁flood": 4325,
      "▁delicious": 4326,
      "▁Ben": 4327,
      "▁license": 4328,
      "▁gained": 4329,
      "▁household": 4330,
      "▁telephone": 4331,
      "over": 4332,
      "▁affordable": 4333,
      "▁adopted": 4334,
      "▁falling": 4335,
      "▁Italian": 4336,
      "▁interior": 4337,
      "ishing": 4338,
      "▁quarter": 4339,
      "▁chaired": 4340,
      "▁deliver": 4341,
      "ones": 4342,
      "▁Society": 4343,
      "▁subsequently": 4344,
      "▁Biden": 4345,
      "▁flu": 4346,
      "ulate": 4347,
      "▁participation": 4348,
      "ool": 4349,
      "amm": 4350,
      "▁exists": 4351,
      "▁preparing": 4352,
      "▁sizes": 4353,
      "▁newspaper": 4354,
      "▁currency": 4355,
      "▁Boss": 4356,
      "▁PTI": 4357,
      "▁eastern": 4358,
      "▁purchased": 4359,
      "▁implement": 4360,
      "▁reducing": 4361,
      "▁payments": 4362,
      "▁kid": 4363,
      "free": 4364,
      "▁expression": 4365,
      "▁Captain": 4366,
      "▁perfectly": 4367,
      "▁net": 4368,
      "▁aspect": 4369,
      "▁Common": 4370,
      "use": 4371,
      "▁effectively": 4372,
      "▁declined": 4373,
      "▁formation": 4374,
      "ively": 4375,
      "▁Break": 4376,
      "▁Organisation": 4377,
      "▁falls": 4378,
      "▁headquarters": 4379,
      "▁prize": 4380,
      "▁passenger": 4381,
      "body": 4382,
      "▁ter": 4383,
      "▁articles": 4384,
      "▁cream": 4385,
      "▁strange": 4386,
      "▁founder": 4387,
      "ima": 4388,
      "▁41": 4389,
      "▁upset": 4390,
      "▁shopping": 4391,
      "TC": 4392,
      "▁exception": 4393,
      "▁breathing": 4394,
      "▁captured": 4395,
      ".0": 4396,
      "off": 4397,
      "▁expectations": 4398,
      "▁AM": 4399,
      "▁guarantee": 4400,
      "▁Welfare": 4401,
      "▁wood": 4402,
      "▁Cost": 4403,
      "▁inform": 4404,
      "▁ice": 4405,
      "▁physician": 4406,
      "▁Federation": 4407,
      "▁beach": 4408,
      "▁assured": 4409,
      "▁upper": 4410,
      "CC": 4411,
      "▁Doctors": 4412,
      "▁revolution": 4413,
      "▁trend": 4414,
      "ven": 4415,
      ".8": 4416,
      "▁Main": 4417,
      "ami": 4418,
      "eep": 4419,
      "▁snow": 4420,
      "▁streets": 4421,
      "▁comm": 4422,
      "ously": 4423,
      "▁monitoring": 4424,
      "▁fake": 4425,
      "▁Store": 4426,
      "▁Ac": 4427,
      "▁connectivity": 4428,
      "▁disappointed": 4429,
      "▁Moscow": 4430,
      "▁departments": 4431,
      "hat": 4432,
      "▁aged": 4433,
      "▁chopped": 4434,
      "ences": 4435,
      "▁Kapil": 4436,
      "▁mar": 4437,
      "▁imagine": 4438,
      "▁poet": 4439,
      "ander": 4440,
      "▁prayers": 4441,
      "▁doors": 4442,
      "▁fantastic": 4443,
      "▁sat": 4444,
      "▁Industry": 4445,
      "▁Ter": 4446,
      "▁poverty": 4447,
      "▁yoga": 4448,
      "▁Cor": 4449,
      "▁Dhawan": 4450,
      "▁Indies": 4451,
      "▁10,000": 4452,
      "▁ob": 4453,
      "▁46": 4454,
      "▁considering": 4455,
      "▁Jerusalem": 4456,
      "meric": 4457,
      "▁digest": 4458,
      "ila": 4459,
      "▁lucky": 4460,
      "▁auto": 4461,
      "▁Muhammad": 4462,
      "▁directions": 4463,
      "istan": 4464,
      "▁Never": 4465,
      "▁sounds": 4466,
      "▁evil": 4467,
      "▁belong": 4468,
      "-1": 4469,
      "▁faces": 4470,
      "▁Eastern": 4471,
      "▁Ash": 4472,
      "▁learnt": 4473,
      "▁windows": 4474,
      "▁establish": 4475,
      "back": 4476,
      "▁Bureau": 4477,
      "▁Aw": 4478,
      "▁Tourism": 4479,
      "oss": 4480,
      "▁showing": 4481,
      "▁meals": 4482,
      "▁Digital": 4483,
      "19": 4484,
      "▁resistance": 4485,
      "▁quit": 4486,
      "▁prayer": 4487,
      "▁liquid": 4488,
      "ried": 4489,
      "▁policemen": 4490,
      "▁band": 4491,
      "▁principles": 4492,
      "▁Give": 4493,
      "▁Syria": 4494,
      "▁rescued": 4495,
      "▁wins": 4496,
      "▁Chandigarh": 4497,
      "▁Top": 4498,
      ".4": 4499,
      "▁hadn": 4500,
      "▁Trans": 4501,
      "▁pace": 4502,
      "istic": 4503,
      "▁Shankar": 4504,
      "▁Master": 4505,
      "▁Saif": 4506,
      "ere": 4507,
      "▁Greek": 4508,
      "▁Trade": 4509,
      "ID": 4510,
      "▁2003": 4511,
      "▁Assistant": 4512,
      "▁promised": 4513,
      "▁Unfortunately": 4514,
      "▁script": 4515,
      "▁mention": 4516,
      "▁wake": 4517,
      "▁Agency": 4518,
      "▁dual": 4519,
      "TE": 4520,
      "▁represented": 4521,
      "▁debt": 4522,
      "▁sir": 4523,
      "▁extent": 4524,
      "▁reviews": 4525,
      "anth": 4526,
      "▁Prince": 4527,
      "▁crop": 4528,
      "▁valuable": 4529,
      "▁Similarly": 4530,
      "▁Bad": 4531,
      "fast": 4532,
      "▁browser": 4533,
      "▁sentence": 4534,
      "▁immune": 4535,
      "book": 4536,
      ".9": 4537,
      "▁AN": 4538,
      "▁custom": 4539,
      "▁entering": 4540,
      "ever": 4541,
      "▁Reserve": 4542,
      "uring": 4543,
      "▁spreading": 4544,
      "▁Ass": 4545,
      "▁Nitish": 4546,
      "▁Six": 4547,
      "ache": 4548,
      "▁tourist": 4549,
      "▁association": 4550,
      "▁smartphones": 4551,
      "▁dismissed": 4552,
      "▁2001": 4553,
      "ino": 4554,
      "▁Padukone": 4555,
      "▁und": 4556,
      "▁assist": 4557,
      "▁SD": 4558,
      "ulation": 4559,
      "-3": 4560,
      "▁Applic": 4561,
      "▁shoes": 4562,
      "▁Kaur": 4563,
      "▁load": 4564,
      "▁Show": 4565,
      "▁dogs": 4566,
      "▁Dis": 4567,
      "▁resignation": 4568,
      "▁Ap": 4569,
      "akh": 4570,
      "▁harmful": 4571,
      "▁weren": 4572,
      "▁lunch": 4573,
      "▁blast": 4574,
      "▁Smith": 4575,
      "▁investigate": 4576,
      "▁Soviet": 4577,
      "▁escape": 4578,
      "▁gradually": 4579,
      "▁tickets": 4580,
      "▁fly": 4581,
      "ole": 4582,
      "▁conducting": 4583,
      "▁brings": 4584,
      "▁lake": 4585,
      "▁computers": 4586,
      "▁suspect": 4587,
      "▁Bombay": 4588,
      "▁minerals": 4589,
      "▁Cong": 4590,
      "ited": 4591,
      "▁mon": 4592,
      "▁sets": 4593,
      "AC": 4594,
      "con": 4595,
      "▁Reliance": 4596,
      "ced": 4597,
      "▁transactions": 4598,
      "▁52": 4599,
      "▁def": 4600,
      "▁47": 4601,
      "my": 4602,
      "▁familiar": 4603,
      "▁emotions": 4604,
      "▁preparation": 4605,
      "▁Abu": 4606,
      "member": 4607,
      "oh": 4608,
      "yan": 4609,
      "▁ent": 4610,
      "▁visa": 4611,
      "▁99": 4612,
      "▁Investigation": 4613,
      "OS": 4614,
      "▁passing": 4615,
      "amed": 4616,
      "ause": 4617,
      "▁dies": 4618,
      "▁ant": 4619,
      "▁nose": 4620,
      "aram": 4621,
      "▁fees": 4622,
      "▁core": 4623,
      "▁reduces": 4624,
      "▁mandatory": 4625,
      "▁collect": 4626,
      "▁Computer": 4627,
      "▁forgotten": 4628,
      "cy": 4629,
      "▁calcium": 4630,
      "room": 4631,
      "▁Br": 4632,
      "▁Aren": 4633,
      "▁necessarily": 4634,
      "▁turns": 4635,
      "▁earned": 4636,
      "ility": 4637,
      "'": 4638,
      "▁circuit": 4639,
      "▁Trust": 4640,
      "▁flag": 4641,
      "▁prefer": 4642,
      "▁survived": 4643,
      "▁primarily": 4644,
      "▁TMC": 4645,
      "▁lights": 4646,
      "▁refers": 4647,
      "wara": 4648,
      "aking": 4649,
      "▁formal": 4650,
      "▁server": 4651,
      "▁channels": 4652,
      "▁bringing": 4653,
      "▁variant": 4654,
      "▁opinions": 4655,
      "▁flat": 4656,
      "▁reg": 4657,
      "▁Amendment": 4658,
      "ort": 4659,
      "▁catch": 4660,
      "▁powers": 4661,
      "ises": 4662,
      "▁practices": 4663,
      "▁dec": 4664,
      "ote": 4665,
      "▁militants": 4666,
      "▁RSS": 4667,
      "pped": 4668,
      "▁Administration": 4669,
      "▁print": 4670,
      "ement": 4671,
      "▁Has": 4672,
      "ark": 4673,
      "▁journalists": 4674,
      "▁Abhishek": 4675,
      "▁engines": 4676,
      "de": 4677,
      "▁celebration": 4678,
      "▁walked": 4679,
      "▁listening": 4680,
      "▁Arab": 4681,
      "▁Protection": 4682,
      "▁Thousands": 4683,
      "ord": 4684,
      "▁behalf": 4685,
      "IS": 4686,
      "inch": 4687,
      "▁retired": 4688,
      "get": 4689,
      "▁Christians": 4690,
      "▁shortly": 4691,
      "abh": 4692,
      "▁Acc": 4693,
      "▁Ye": 4694,
      "-20": 4695,
      "▁firing": 4696,
      "▁el": 4697,
      "▁argument": 4698,
      "▁mm": 4699,
      "▁ED": 4700,
      "▁Michael": 4701,
      "AM": 4702,
      "cent": 4703,
      "ibility": 4704,
      "inn": 4705,
      "▁edition": 4706,
      "orn": 4707,
      "▁principal": 4708,
      "▁AL": 4709,
      "▁Pre": 4710,
      "▁mult": 4711,
      "▁vast": 4712,
      "▁mixed": 4713,
      "OU": 4714,
      "▁earthquake": 4715,
      "▁borders": 4716,
      "▁returning": 4717,
      "▁calories": 4718,
      "ored": 4719,
      "▁usual": 4720,
      "▁Death": 4721,
      "iles": 4722,
      "gan": 4723,
      "▁ji": 4724,
      "▁terrible": 4725,
      "▁investments": 4726,
      "▁inspired": 4727,
      "▁updated": 4728,
      "▁pleasant": 4729,
      "▁losses": 4730,
      "rad": 4731,
      "ops": 4732,
      "▁collaboration": 4733,
      "▁Mand": 4734,
      "▁Joint": 4735,
      "▁Rec": 4736,
      "▁applies": 4737,
      "▁voting": 4738,
      "▁charging": 4739,
      "▁electrical": 4740,
      "▁experiment": 4741,
      "▁participating": 4742,
      "ibilities": 4743,
      "▁lay": 4744,
      "▁personality": 4745,
      "run": 4746,
      "▁Das": 4747,
      "▁equally": 4748,
      "▁appealed": 4749,
      "Z": 4750,
      "▁sensitive": 4751,
      "▁believes": 4752,
      "que": 4753,
      "avi": 4754,
      "▁Head": 4755,
      "▁resign": 4756,
      "AS": 4757,
      "▁acts": 4758,
      "▁violation": 4759,
      "▁Democratic": 4760,
      "▁CO": 4761,
      "US": 4762,
      "▁Bigg": 4763,
      "80": 4764,
      "▁humanity": 4765,
      "▁Lucknow": 4766,
      "ested": 4767,
      "ner": 4768,
      "▁professionals": 4769,
      "▁Shahid": 4770,
      "ral": 4771,
      "▁clothing": 4772,
      "▁pending": 4773,
      "▁principle": 4774,
      "▁ap": 4775,
      "▁BSP": 4776,
      "▁adequate": 4777,
      "▁intended": 4778,
      "▁Premier": 4779,
      "▁highway": 4780,
      "▁activists": 4781,
      "used": 4782,
      "▁poetry": 4783,
      "▁equivalent": 4784,
      "▁Press": 4785,
      "ree": 4786,
      "der": 4787,
      "▁voters": 4788,
      "▁unusual": 4789,
      "osh": 4790,
      "▁corporate": 4791,
      "▁samples": 4792,
      "▁notes": 4793,
      "▁min": 4794,
      "▁improvement": 4795,
      "▁stronger": 4796,
      "▁Ak": 4797,
      "▁Thomas": 4798,
      "▁followers": 4799,
      "▁Budget": 4800,
      "▁completion": 4801,
      "▁Port": 4802,
      "▁quantity": 4803,
      "▁definition": 4804,
      "▁°": 4805,
      "▁relation": 4806,
      "▁vary": 4807,
      "▁600": 4808,
      "▁murdered": 4809,
      "-2": 4810,
      "▁Kong": 4811,
      "▁popularity": 4812,
      "▁Ireland": 4813,
      "▁approached": 4814,
      "so": 4815,
      "▁courts": 4816,
      "▁Sit": 4817,
      "▁efficient": 4818,
      "▁Kovind": 4819,
      "▁realized": 4820,
      "▁depression": 4821,
      "▁Video": 4822,
      "law": 4823,
      "ying": 4824,
      "▁voted": 4825,
      "enger": 4826,
      "▁fairly": 4827,
      "▁letters": 4828,
      "IN": 4829,
      "▁shock": 4830,
      "18": 4831,
      "▁Grand": 4832,
      "▁decade": 4833,
      "omer": 4834,
      "▁spokesman": 4835,
      "▁Hong": 4836,
      "pal": 4837,
      "▁portion": 4838,
      "▁CPI": 4839,
      "cl": 4840,
      "▁toward": 4841,
      "▁obvious": 4842,
      "▁batsman": 4843,
      "ann": 4844,
      "▁labour": 4845,
      "ear": 4846,
      "▁Would": 4847,
      "▁existence": 4848,
      "aul": 4849,
      "▁enemy": 4850,
      "▁Dec": 4851,
      "▁export": 4852,
      "ined": 4853,
      "▁chest": 4854,
      "▁Mobile": 4855,
      "▁aims": 4856,
      "▁IC": 4857,
      "▁belongs": 4858,
      "▁congratulated": 4859,
      "▁admit": 4860,
      "▁virtual": 4861,
      "▁encourage": 4862,
      "▁provision": 4863,
      "known": 4864,
      "▁remarks": 4865,
      "▁Jan": 4866,
      "▁medications": 4867,
      "▁voltage": 4868,
      "▁footage": 4869,
      "▁shortage": 4870,
      "▁rem": 4871,
      "▁figures": 4872,
      "▁Nehru": 4873,
      "▁Sciences": 4874,
      "▁stability": 4875,
      "▁Ayodhya": 4876,
      "gh": 4877,
      "▁cat": 4878,
      "▁represent": 4879,
      "▁Name": 4880,
      "ency": 4881,
      "▁division": 4882,
      "ately": 4883,
      "▁mutual": 4884,
      "▁polling": 4885,
      "ges": 4886,
      "▁honor": 4887,
      "▁comfort": 4888,
      "▁presided": 4889,
      "▁choices": 4890,
      "▁regulations": 4891,
      "▁pot": 4892,
      "▁disaster": 4893,
      "MC": 4894,
      "▁parent": 4895,
      "▁moments": 4896,
      "▁retail": 4897,
      "▁maintaining": 4898,
      "▁presidential": 4899,
      "▁brief": 4900,
      "▁Matthew": 4901,
      "▁favourite": 4902,
      "▁deeply": 4903,
      "▁functioning": 4904,
      ".6": 4905,
      "▁amounts": 4906,
      "▁sudden": 4907,
      "iya": 4908,
      "▁Res": 4909,
      "▁Pandey": 4910,
      "▁normally": 4911,
      "▁sauce": 4912,
      "▁LED": 4913,
      "▁resident": 4914,
      "▁Festival": 4915,
      "▁Ocean": 4916,
      "▁Member": 4917,
      "▁|": 4918,
      "mi": 4919,
      "▁democratic": 4920,
      "▁component": 4921,
      "▁Find": 4922,
      "wan": 4923,
      "▁Em": 4924,
      "▁protesting": 4925,
      "▁corner": 4926,
      "▁temporary": 4927,
      "▁des": 4928,
      "▁5-": 4929,
      "itive": 4930,
      "▁Old": 4931,
      "▁remembered": 4932,
      "▁reference": 4933,
      "▁Prof": 4934,
      "▁pool": 4935,
      "▁ret": 4936,
      "▁powered": 4937,
      "▁maintenance": 4938,
      "▁owned": 4939,
      "▁51": 4940,
      "▁reaching": 4941,
      "▁council": 4942,
      "▁SS": 4943,
      "▁2002": 4944,
      "▁positions": 4945,
      "▁monitor": 4946,
      "▁Without": 4947,
      "▁versions": 4948,
      "▁Young": 4949,
      "▁drivers": 4950,
      "▁Cho": 4951,
      "▁boil": 4952,
      "▁mountains": 4953,
      "▁efficiency": 4954,
      "▁adult": 4955,
      "▁replied": 4956,
      "▁attempts": 4957,
      "▁hall": 4958,
      "▁contesting": 4959,
      "oring": 4960,
      "▁Babu": 4961,
      "ued": 4962,
      "▁motion": 4963,
      "nes": 4964,
      "▁criticism": 4965,
      "▁aw": 4966,
      "▁provider": 4967,
      "po": 4968,
      "▁personally": 4969,
      "▁native": 4970,
      "▁Srinagar": 4971,
      "▁threatened": 4972,
      "é": 4973,
      "▁Executive": 4974,
      "▁consideration": 4975,
      "▁branch": 4976,
      "ign": 4977,
      "▁hosting": 4978,
      "ese": 4979,
      "▁Sure": 4980,
      "▁Joseph": 4981,
      "▁beings": 4982,
      "▁storm": 4983,
      "▁1,000": 4984,
      "▁strategic": 4985,
      "▁teeth": 4986,
      "▁refer": 4987,
      "▁diverse": 4988,
      "▁semi": 4989,
      "▁arrive": 4990,
      "ube": 4991,
      "▁avail": 4992,
      "ital": 4993,
      "▁album": 4994,
      "▁370": 4995,
      "▁Account": 4996,
      "▁displayed": 4997,
      "▁equation": 4998,
      "▁Katrina": 4999,
      "▁expert": 5000,
      "▁surprising": 5001,
      "▁somebody": 5002,
      "▁1990": 5003,
      "▁punishment": 5004,
      "▁tur": 5005,
      "▁bread": 5006,
      "▁Change": 5007,
      "▁possession": 5008,
      "▁Ajit": 5009,
      "▁sand": 5010,
      "▁skill": 5011,
      "nagar": 5012,
      "▁chat": 5013,
      "▁85": 5014,
      "▁blame": 5015,
      "▁Still": 5016,
      "het": 5017,
      "▁chain": 5018,
      "▁bacteria": 5019,
      "▁index": 5020,
      "▁tight": 5021,
      "▁pleasure": 5022,
      "▁machines": 5023,
      "▁Say": 5024,
      "▁Sal": 5025,
      "▁Whether": 5026,
      "▁Nitin": 5027,
      "▁preparations": 5028,
      "▁Sidhu": 5029,
      "▁Money": 5030,
      "▁bird": 5031,
      "▁nutrition": 5032,
      "▁Perhaps": 5033,
      "ved": 5034,
      "▁Commerce": 5035,
      "▁outcome": 5036,
      "▁Devi": 5037,
      "▁thanked": 5038,
      "▁trailer": 5039,
      "etic": 5040,
      "▁celebrations": 5041,
      "we": 5042,
      "▁tension": 5043,
      "▁clash": 5044,
      "son": 5045,
      "▁ratio": 5046,
      "▁accordance": 5047,
      "▁sleeping": 5048,
      "▁domain": 5049,
      "ctors": 5050,
      "The": 5051,
      "▁attitude": 5052,
      "ky": 5053,
      "▁papers": 5054,
      "▁limits": 5055,
      "▁extend": 5056,
      "▁Language": 5057,
      "▁applying": 5058,
      "▁medals": 5059,
      "DA": 5060,
      "▁AC": 5061,
      "▁fore": 5062,
      "▁fitness": 5063,
      "▁constituencies": 5064,
      ".7": 5065,
      "▁photograph": 5066,
      "▁pure": 5067,
      "▁Conf": 5068,
      "▁Jud": 5069,
      "ular": 5070,
      "▁Scheme": 5071,
      "▁crew": 5072,
      "▁watched": 5073,
      "▁nut": 5074,
      "▁explanation": 5075,
      "▁salary": 5076,
      "▁Queen": 5077,
      "pan": 5078,
      "▁promoting": 5079,
      "▁Parents": 5080,
      "▁Cust": 5081,
      "▁Tom": 5082,
      "ater": 5083,
      "▁Sitharaman": 5084,
      "▁featured": 5085,
      "▁sil": 5086,
      "▁Guru": 5087,
      "▁assault": 5088,
      "▁attractive": 5089,
      "▁Abdullah": 5090,
      "▁Prov": 5091,
      "▁bag": 5092,
      "king": 5093,
      "ares": 5094,
      "▁administrative": 5095,
      "ality": 5096,
      "▁Rajesh": 5097,
      "▁feed": 5098,
      "▁ear": 5099,
      "board": 5100,
      "▁Mahindra": 5101,
      "▁worker": 5102,
      "▁inspiration": 5103,
      "▁Oil": 5104,
      "▁mag": 5105,
      "ick": 5106,
      "▁automatic": 5107,
      "▁belief": 5108,
      "▁objects": 5109,
      "▁Construction": 5110,
      "▁Speaker": 5111,
      "▁pres": 5112,
      "▁sixth": 5113,
      "oli": 5114,
      "▁Fadnavis": 5115,
      "▁attached": 5116,
      "ond": 5117,
      "▁annually": 5118,
      "▁enable": 5119,
      "▁count": 5120,
      "charge": 5121,
      "▁empty": 5122,
      "▁breakfast": 5123,
      "▁requirement": 5124,
      "▁Inf": 5125,
      "▁kidney": 5126,
      "▁smoking": 5127,
      "▁advertising": 5128,
      "rant": 5129,
      "▁dear": 5130,
      "▁Malik": 5131,
      "▁Cond": 5132,
      "▁Tendulkar": 5133,
      "▁Bhag": 5134,
      "▁describe": 5135,
      "▁Online": 5136,
      "▁procedures": 5137,
      "▁profile": 5138,
      "▁Indira": 5139,
      "▁Consequently": 5140,
      "▁zone": 5141,
      "▁drama": 5142,
      "▁rock": 5143,
      "orry": 5144,
      "rap": 5145,
      "▁reasonable": 5146,
      "▁bro": 5147,
      "▁Jaitley": 5148,
      "▁forth": 5149,
      "▁pm": 5150,
      "▁explosion": 5151,
      "▁SE": 5152,
      "▁Ambani": 5153,
      "▁reduction": 5154,
      "▁Des": 5155,
      "▁rapid": 5156,
      "▁tasks": 5157,
      "▁Joe": 5158,
      "▁Col": 5159,
      "▁cry": 5160,
      "▁abuse": 5161,
      "▁continuously": 5162,
      "▁nutrients": 5163,
      "▁temperatures": 5164,
      "▁hotels": 5165,
      "▁trained": 5166,
      "hand": 5167,
      "▁blend": 5168,
      "▁recognize": 5169,
      "▁resulted": 5170,
      "▁putting": 5171,
      "▁newly": 5172,
      "▁decrease": 5173,
      "sc": 5174,
      "▁armed": 5175,
      "▁prescribed": 5176,
      "▁Stadium": 5177,
      "▁Real": 5178,
      "▁grief": 5179,
      "ES": 5180,
      "▁loving": 5181,
      "▁competitive": 5182,
      "▁Bus": 5183,
      "IM": 5184,
      "▁suit": 5185,
      "▁Cover": 5186,
      "▁allowing": 5187,
      "▁SMS": 5188,
      "▁suggest": 5189,
      "▁dep": 5190,
      "▁Kan": 5191,
      "bed": 5192,
      "▁merely": 5193,
      "ues": 5194,
      "ple": 5195,
      "rats": 5196,
      "rid": 5197,
      "▁elderly": 5198,
      "▁bond": 5199,
      "▁technique": 5200,
      "▁amongst": 5201,
      "▁percentage": 5202,
      "▁noticed": 5203,
      "▁summit": 5204,
      "▁Connect": 5205,
      "▁installation": 5206,
      "▁qualified": 5207,
      "▁hearts": 5208,
      "16": 5209,
      "▁innovation": 5210,
      "▁techniques": 5211,
      "rib": 5212,
      "▁nervous": 5213,
      "▁PS": 5214,
      "▁liver": 5215,
      "▁Federal": 5216,
      "▁assistant": 5217,
      "▁availability": 5218,
      "SE": 5219,
      "▁boat": 5220,
      "-4": 5221,
      "ury": 5222,
      "ora": 5223,
      "▁bomb": 5224,
      "eng": 5225,
      "▁governor": 5226,
      "▁architecture": 5227,
      "▁800": 5228,
      "▁coal": 5229,
      "▁Ok": 5230,
      "▁Ban": 5231,
      "▁overs": 5232,
      "▁1000": 5233,
      "▁54": 5234,
      "▁analy": 5235,
      "▁stick": 5236,
      "▁consecutive": 5237,
      "▁doses": 5238,
      "▁Communication": 5239,
      "▁comprehensive": 5240,
      "▁delay": 5241,
      "▁estate": 5242,
      "▁closer": 5243,
      "▁somewhere": 5244,
      "▁skipper": 5245,
      "▁excess": 5246,
      "▁furniture": 5247,
      "gar": 5248,
      "▁witness": 5249,
      "▁Ladakh": 5250,
      "cept": 5251,
      "▁Light": 5252,
      "▁NDA": 5253,
      "▁anxiety": 5254,
      "▁pattern": 5255,
      "cing": 5256,
      "▁Should": 5257,
      "▁balls": 5258,
      "▁returns": 5259,
      "▁motorcycle": 5260,
      "▁speaks": 5261,
      "▁supplies": 5262,
      "▁com": 5263,
      "lying": 5264,
      "ifying": 5265,
      "ancy": 5266,
      "▁addressing": 5267,
      "▁secondary": 5268,
      "uri": 5269,
      "▁Leader": 5270,
      "being": 5271,
      "▁panic": 5272,
      "▁blocked": 5273,
      "OC": 5274,
      "olic": 5275,
      "▁description": 5276,
      "ips": 5277,
      "▁labor": 5278,
      "▁suspected": 5279,
      "▁Mir": 5280,
      "▁supp": 5281,
      "▁survive": 5282,
      "▁subjects": 5283,
      "▁retirement": 5284,
      "▁fiber": 5285,
      "▁flash": 5286,
      "pat": 5287,
      "▁Bengali": 5288,
      "▁asks": 5289,
      "▁Fl": 5290,
      "AP": 5291,
      "▁appointment": 5292,
      "uter": 5293,
      "▁raped": 5294,
      "▁vacation": 5295,
      "▁vs": 5296,
      "▁Petrol": 5297,
      "▁Municipal": 5298,
      "▁Moh": 5299,
      "▁GDP": 5300,
      "▁ease": 5301,
      "▁kingdom": 5302,
      "▁professor": 5303,
      "▁Kangana": 5304,
      "▁Northern": 5305,
      "▁None": 5306,
      "port": 5307,
      "▁1980": 5308,
      "▁chicken": 5309,
      "▁menu": 5310,
      "iling": 5311,
      "▁Sah": 5312,
      "▁manufacturers": 5313,
      "17": 5314,
      "▁72": 5315,
      "▁twenty": 5316,
      "▁decline": 5317,
      "▁TDP": 5318,
      "▁hide": 5319,
      "▁fired": 5320,
      "ually": 5321,
      "▁Design": 5322,
      "▁client": 5323,
      "▁bedroom": 5324,
      "▁Program": 5325,
      "▁heritage": 5326,
      "15": 5327,
      "aus": 5328,
      "▁farming": 5329,
      "▁muscles": 5330,
      "▁Roman": 5331,
      "▁satellite": 5332,
      "▁chair": 5333,
      "▁Off": 5334,
      "▁integral": 5335,
      "▁talent": 5336,
      "▁mess": 5337,
      "▁Think": 5338,
      "▁thankful": 5339,
      "▁Cont": 5340,
      "▁Wh": 5341,
      "▁intention": 5342,
      "▁gender": 5343,
      "▁const": 5344,
      "▁tend": 5345,
      "ba": 5346,
      "▁grams": 5347,
      "oke": 5348,
      "▁spring": 5349,
      "▁Dam": 5350,
      "▁DC": 5351,
      "preet": 5352,
      "▁expanded": 5353,
      "▁dam": 5354,
      "▁calendar": 5355,
      "▁Metro": 5356,
      "▁Nirmala": 5357,
      "▁Championship": 5358,
      "rated": 5359,
      "▁aimed": 5360,
      "▁promises": 5361,
      "▁thereafter": 5362,
      "ft": 5363,
      "athi": 5364,
      "▁fastest": 5365,
      "▁lying": 5366,
      "▁wonder": 5367,
      "▁IN": 5368,
      "▁Small": 5369,
      "TA": 5370,
      "▁expecting": 5371,
      "▁entrance": 5372,
      "▁sum": 5373,
      "▁toilet": 5374,
      "▁ass": 5375,
      "▁parliamentary": 5376,
      "▁constituted": 5377,
      "▁arm": 5378,
      "▁rub": 5379,
      "▁cough": 5380,
      "▁Down": 5381,
      "▁continuous": 5382,
      "▁56": 5383,
      "▁painting": 5384,
      "▁produces": 5385,
      "aps": 5386,
      "ula": 5387,
      "▁OK": 5388,
      "SP": 5389,
      "▁behaviour": 5390,
      "▁withdraw": 5391,
      "▁consent": 5392,
      "▁Sk": 5393,
      "▁item": 5394,
      "▁Latin": 5395,
      "▁er": 5396,
      "▁represents": 5397,
      "▁1,": 5398,
      "▁uns": 5399,
      "▁politician": 5400,
      "▁Ant": 5401,
      "bers": 5402,
      "▁penalty": 5403,
      "▁Korean": 5404,
      "▁Tal": 5405,
      "▁Professor": 5406,
      "▁replaced": 5407,
      "▁Moon": 5408,
      "▁Pawan": 5409,
      "▁possibilities": 5410,
      "▁expansion": 5411,
      "▁Long": 5412,
      "▁Especially": 5413,
      "IB": 5414,
      "̣": 5415,
      "▁exc": 5416,
      "▁significance": 5417,
      "▁Tests": 5418,
      "40": 5419,
      "▁128": 5420,
      "▁dollar": 5421,
      "▁1999": 5422,
      "▁settled": 5423,
      "▁severely": 5424,
      "▁destroy": 5425,
      "▁Ed": 5426,
      "▁Mon": 5427,
      "▁witnessed": 5428,
      "India": 5429,
      "▁Joshi": 5430,
      "▁input": 5431,
      "▁pair": 5432,
      "▁Sum": 5433,
      "▁Industries": 5434,
      "▁che": 5435,
      "▁Income": 5436,
      "▁alongside": 5437,
      "▁achievement": 5438,
      "▁Culture": 5439,
      "▁broad": 5440,
      "▁Canadian": 5441,
      "▁Search": 5442,
      "▁correctly": 5443,
      "▁dose": 5444,
      "▁pack": 5445,
      "▁nic": 5446,
      "▁Manipur": 5447,
      "▁chapter": 5448,
      "▁admission": 5449,
      "bir": 5450,
      "▁Personal": 5451,
      "▁united": 5452,
      "▁agent": 5453,
      "▁caste": 5454,
      "▁favour": 5455,
      "▁Shiva": 5456,
      "▁recognised": 5457,
      "ired": 5458,
      "▁Galaxy": 5459,
      "▁Members": 5460,
      "ullah": 5461,
      "uts": 5462,
      "da": 5463,
      "▁Credit": 5464,
      "▁Hossain": 5465,
      "▁incredibly": 5466,
      "▁lit": 5467,
      "▁pol": 5468,
      "▁phases": 5469,
      "▁involves": 5470,
      "▁incredible": 5471,
      "ables": 5472,
      "▁potassium": 5473,
      "▁coverage": 5474,
      "▁absence": 5475,
      "▁passport": 5476,
      "▁specifically": 5477,
      "utely": 5478,
      "▁Plan": 5479,
      "▁Mur": 5480,
      "▁Hollywood": 5481,
      "▁Empire": 5482,
      "▁Private": 5483,
      "▁beds": 5484,
      "▁180": 5485,
      "▁HDFC": 5486,
      "▁relating": 5487,
      "ove": 5488,
      "▁funding": 5489,
      "▁globe": 5490,
      "▁Bi": 5491,
      "▁sustainable": 5492,
      "▁Cur": 5493,
      "▁Devendra": 5494,
      "▁safely": 5495,
      "▁Absol": 5496,
      "▁fraud": 5497,
      "▁surely": 5498,
      "ira": 5499,
      "▁cleaning": 5500,
      "ef": 5501,
      "▁Che": 5502,
      "▁Plus": 5503,
      "▁Principal": 5504,
      "▁Lear": 5505,
      "▁Stay": 5506,
      "▁Street": 5507,
      "▁Major": 5508,
      "▁Environment": 5509,
      "▁Banks": 5510,
      "▁drinks": 5511,
      "▁whereas": 5512,
      "▁globally": 5513,
      "▁mill": 5514,
      "14": 5515,
      "▁Forest": 5516,
      "▁unless": 5517,
      "▁variants": 5518,
      "▁Vietnam": 5519,
      "▁ph": 5520,
      "▁Netherlands": 5521,
      "▁sample": 5522,
      "▁carb": 5523,
      "▁outstanding": 5524,
      "view": 5525,
      "van": 5526,
      "SA": 5527,
      "▁dialogue": 5528,
      "aji": 5529,
      "▁replace": 5530,
      "ert": 5531,
      "▁acids": 5532,
      "▁Apparently": 5533,
      "▁bin": 5534,
      "▁physically": 5535,
      "▁Sharad": 5536,
      "▁composition": 5537,
      "▁premises": 5538,
      "RI": 5539,
      "izes": 5540,
      "▁clinical": 5541,
      "▁row": 5542,
      "▁joining": 5543,
      "tra": 5544,
      "▁muscle": 5545,
      "▁jointly": 5546,
      "▁discount": 5547,
      "▁Nir": 5548,
      "▁readers": 5549,
      "▁enemies": 5550,
      "ppers": 5551,
      "▁destination": 5552,
      "▁Superintendent": 5553,
      "▁sentenced": 5554,
      "▁Industrial": 5555,
      "▁hyd": 5556,
      "▁stressed": 5557,
      "▁Pacific": 5558,
      "▁silence": 5559,
      "▁Holy": 5560,
      "▁whenever": 5561,
      "▁interface": 5562,
      "▁Kalyan": 5563,
      "▁Patil": 5564,
      "▁citizenship": 5565,
      "ema": 5566,
      "▁Insurance": 5567,
      "▁pivotal": 5568,
      "▁Ann": 5569,
      "▁surrounding": 5570,
      "▁comprises": 5571,
      "▁ranked": 5572,
      "▁Schools": 5573,
      "▁philosophy": 5574,
      "▁repeat": 5575,
      "▁53": 5576,
      "▁automatically": 5577,
      "▁feedback": 5578,
      "▁import": 5579,
      "▁seed": 5580,
      "unt": 5581,
      "▁res": 5582,
      "▁95": 5583,
      "▁generated": 5584,
      "▁grant": 5585,
      "▁signal": 5586,
      "rating": 5587,
      "▁Land": 5588,
      "▁ref": 5589,
      "▁diagnosis": 5590,
      "▁Sab": 5591,
      "▁Spirit": 5592,
      "hana": 5593,
      "▁extensive": 5594,
      "▁Patna": 5595,
      "▁warrant": 5596,
      "▁Ukraine": 5597,
      "ern": 5598,
      "▁cure": 5599,
      "▁fighter": 5600,
      "▁Political": 5601,
      "iy": 5602,
      "uss": 5603,
      "▁Hon": 5604,
      "▁dish": 5605,
      "▁duration": 5606,
      "▁painful": 5607,
      "▁exercises": 5608,
      "▁Swaraj": 5609,
      "▁Applications": 5610,
      "MA": 5611,
      "▁centers": 5612,
      "une": 5613,
      "▁crimes": 5614,
      "▁combat": 5615,
      "▁Smart": 5616,
      "▁religions": 5617,
      "▁recover": 5618,
      "▁Kaif": 5619,
      "vel": 5620,
      "▁Sikh": 5621,
      "▁Bath": 5622,
      "▁BS": 5623,
      "▁ash": 5624,
      "▁objectives": 5625,
      "▁housing": 5626,
      "iveness": 5627,
      "▁wine": 5628,
      "▁metres": 5629,
      "▁Nawaz": 5630,
      "▁Need": 5631,
      "▁tele": 5632,
      "▁condemned": 5633,
      "▁Sharif": 5634,
      "▁outbreak": 5635,
      "▁Pass": 5636,
      "▁heads": 5637,
      "▁questioning": 5638,
      "aged": 5639,
      "▁Photo": 5640,
      "▁updates": 5641,
      "▁rel": 5642,
      "▁Motor": 5643,
      "▁Sara": 5644,
      "▁accessible": 5645,
      "▁tennis": 5646,
      "▁duties": 5647,
      "▁Raja": 5648,
      "▁La": 5649,
      "PS": 5650,
      "▁communicate": 5651,
      "▁dist": 5652,
      "▁pension": 5653,
      "▁traditions": 5654,
      "▁Airtel": 5655,
      "▁Crime": 5656,
      "mit": 5657,
      "▁Te": 5658,
      "▁asleep": 5659,
      "▁Instead": 5660,
      "▁stones": 5661,
      "▁Valley": 5662,
      "EC": 5663,
      "▁pur": 5664,
      "▁golden": 5665,
      "▁guidance": 5666,
      "▁nominated": 5667,
      "▁apartment": 5668,
      "▁Benef": 5669,
      "▁59": 5670,
      "▁Miss": 5671,
      "ards": 5672,
      "▁initiatives": 5673,
      "class": 5674,
      "▁obviously": 5675,
      "▁setup": 5676,
      "▁manual": 5677,
      "▁cable": 5678,
      "▁Sm": 5679,
      "▁wheat": 5680,
      "ores": 5681,
      "▁naturally": 5682,
      "▁depth": 5683,
      "▁settings": 5684,
      "pping": 5685,
      "▁layer": 5686,
      "▁ought": 5687,
      "adh": 5688,
      "▁Celsius": 5689,
      "▁pride": 5690,
      "▁Cr": 5691,
      "▁fail": 5692,
      "▁lifetime": 5693,
      "▁Rural": 5694,
      "ola": 5695,
      "hy": 5696,
      "▁Building": 5697,
      "▁Elections": 5698,
      "▁reforms": 5699,
      "▁noise": 5700,
      "▁sheet": 5701,
      "match": 5702,
      "▁>": 5703,
      "▁sending": 5704,
      "▁ev": 5705,
      "▁passes": 5706,
      "▁litre": 5707,
      "▁capabilities": 5708,
      "▁celebrities": 5709,
      "▁att": 5710,
      "60": 5711,
      "▁gathering": 5712,
      "▁ang": 5713,
      "▁sessions": 5714,
      "▁cal": 5715,
      "▁perspective": 5716,
      "▁Disc": 5717,
      "▁Set": 5718,
      "▁operational": 5719,
      "▁exceed": 5720,
      "▁Agreement": 5721,
      "itude": 5722,
      "▁performing": 5723,
      "▁Woman": 5724,
      "▁Pra": 5725,
      "▁coconut": 5726,
      "▁attract": 5727,
      "oph": 5728,
      "pend": 5729,
      "▁pink": 5730,
      "▁processor": 5731,
      "▁Manohar": 5732,
      "osing": 5733,
      "▁Nand": 5734,
      "▁fold": 5735,
      "13": 5736,
      "▁burning": 5737,
      "▁Amb": 5738,
      "▁floods": 5739,
      "▁Having": 5740,
      "▁guard": 5741,
      "ny": 5742,
      "aman": 5743,
      "▁OS": 5744,
      "▁raw": 5745,
      "▁kil": 5746,
      "▁Bluetooth": 5747,
      "▁islands": 5748,
      "▁cow": 5749,
      "▁ensuring": 5750,
      "▁Training": 5751,
      "▁IIT": 5752,
      "▁Number": 5753,
      "▁strictly": 5754,
      "▁choosing": 5755,
      "▁cautious": 5756,
      "▁premium": 5757,
      "ML": 5758,
      "▁classic": 5759,
      "▁stroke": 5760,
      "▁generate": 5761,
      "▁Sweden": 5762,
      "▁Manoj": 5763,
      "▁presently": 5764,
      "▁Gar": 5765,
      "▁deposit": 5766,
      "▁campus": 5767,
      "▁commissioner": 5768,
      "▁Def": 5769,
      "▁recognition": 5770,
      "bar": 5771,
      "▁Marathi": 5772,
      "▁Gal": 5773,
      "▁Mukesh": 5774,
      "▁hoping": 5775,
      "▁substances": 5776,
      "▁Staff": 5777,
      "▁styles": 5778,
      "▁fulfilled": 5779,
      "▁judgment": 5780,
      "work": 5781,
      "▁judges": 5782,
      "▁Myanmar": 5783,
      "▁antioxid": 5784,
      "▁originally": 5785,
      "▁Mat": 5786,
      "▁differ": 5787,
      "ns": 5788,
      "▁Abraham": 5789,
      "▁ge": 5790,
      "▁afford": 5791,
      "▁mood": 5792,
      "▁suspects": 5793,
      "▁con": 5794,
      "▁Summit": 5795,
      "▁ocean": 5796,
      "▁govt": 5797,
      "▁squ": 5798,
      "▁singing": 5799,
      "▁viewed": 5800,
      "▁vegetable": 5801,
      "▁Penal": 5802,
      "▁comprising": 5803,
      "▁Select": 5804,
      "▁CRPF": 5805,
      "▁Texas": 5806,
      "▁concluded": 5807,
      "▁HC": 5808,
      "▁Gang": 5809,
      "▁zero": 5810,
      "▁spotted": 5811,
      "▁romantic": 5812,
      "▁unity": 5813,
      "raj": 5814,
      "▁extreme": 5815,
      "▁Network": 5816,
      "▁bedrooms": 5817,
      "IP": 5818,
      "▁prohibited": 5819,
      "--": 5820,
      "▁Club": 5821,
      "▁onto": 5822,
      "▁Max": 5823,
      "▁repeated": 5824,
      "▁Del": 5825,
      "▁CD": 5826,
      "▁dealing": 5827,
      "oth": 5828,
      "▁tonight": 5829,
      "▁brands": 5830,
      "PC": 5831,
      "▁react": 5832,
      "ching": 5833,
      "▁deleted": 5834,
      "oe": 5835,
      "ided": 5836,
      "▁mad": 5837,
      "▁Soon": 5838,
      "▁scam": 5839,
      "▁poster": 5840,
      "▁root": 5841,
      "bit": 5842,
      "ique": 5843,
      "▁fool": 5844,
      "▁controversial": 5845,
      "▁discharged": 5846,
      "▁Ja": 5847,
      "▁sharp": 5848,
      "fer": 5849,
      "usion": 5850,
      "▁1998": 5851,
      "▁editor": 5852,
      "▁laugh": 5853,
      "ix": 5854,
      "▁concerning": 5855,
      "▁condolences": 5856,
      "▁Ahmad": 5857,
      "21": 5858,
      "▁downloaded": 5859,
      "▁Mukherjee": 5860,
      "ray": 5861,
      "▁legislation": 5862,
      "asty": 5863,
      "▁crossed": 5864,
      "mon": 5865,
      "▁Journal": 5866,
      "▁recruitment": 5867,
      "bh": 5868,
      "▁Israeli": 5869,
      "utes": 5870,
      "▁titled": 5871,
      "▁gre": 5872,
      "▁Bay": 5873,
      "▁chronic": 5874,
      "▁Muk": 5875,
      "▁62": 5876,
      "▁profession": 5877,
      "▁patience": 5878,
      "▁weapon": 5879,
      "▁ride": 5880,
      "▁cheese": 5881,
      "ware": 5882,
      "▁panchayat": 5883,
      "DP": 5884,
      "▁stake": 5885,
      "▁poem": 5886,
      "▁cr": 5887,
      "▁int": 5888,
      "▁connections": 5889,
      "▁Thereafter": 5890,
      "▁Gill": 5891,
      "▁Mad": 5892,
      "▁colleagues": 5893,
      "ped": 5894,
      "▁Baj": 5895,
      "▁chose": 5896,
      "▁Auto": 5897,
      "ED": 5898,
      "▁Capital": 5899,
      "▁pilot": 5900,
      "▁tomato": 5901,
      "▁organic": 5902,
      "▁Better": 5903,
      "▁ser": 5904,
      "astic": 5905,
      "▁conclusion": 5906,
      "▁Hel": 5907,
      "▁peak": 5908,
      "min": 5909,
      "▁Aishwarya": 5910,
      "▁usage": 5911,
      "▁@": 5912,
      "▁57": 5913,
      "▁Hey": 5914,
      "▁Access": 5915,
      "▁Price": 5916,
      "▁reward": 5917,
      "▁arrival": 5918,
      "LA": 5919,
      "cted": 5920,
      "▁pet": 5921,
      "▁promotion": 5922,
      "▁covers": 5923,
      "▁potatoes": 5924,
      "che": 5925,
      "▁repair": 5926,
      "▁Thailand": 5927,
      "▁Gadkari": 5928,
      "ades": 5929,
      "oin": 5930,
      "▁memories": 5931,
      "ni": 5932,
      "ndra": 5933,
      "▁qualities": 5934,
      "▁statue": 5935,
      "▁dependent": 5936,
      "▁Turkish": 5937,
      "▁Customers": 5938,
      "▁quoted": 5939,
      "▁missile": 5940,
      "▁58": 5941,
      "▁specified": 5942,
      "▁Hard": 5943,
      "▁attending": 5944,
      "▁reactions": 5945,
      "mat": 5946,
      "▁Cal": 5947,
      "▁bronze": 5948,
      "▁journal": 5949,
      "ologist": 5950,
      "▁opt": 5951,
      "▁supporters": 5952,
      "▁Things": 5953,
      "▁Uddhav": 5954,
      "▁HIV": 5955,
      "▁Afterwards": 5956,
      "▁Various": 5957,
      "▁CBSE": 5958,
      "▁hopes": 5959,
      "▁cute": 5960,
      "▁reserved": 5961,
      "▁weekend": 5962,
      "▁Vis": 5963,
      "▁complained": 5964,
      "▁Division": 5965,
      "▁arts": 5966,
      "▁oath": 5967,
      "▁lady": 5968,
      "▁Dutt": 5969,
      "▁Tej": 5970,
      "▁Expl": 5971,
      "ups": 5972,
      "▁honoured": 5973,
      "▁Los": 5974,
      "▁competitions": 5975,
      "ener": 5976,
      "▁Manish": 5977,
      "▁politicians": 5978,
      "▁differently": 5979,
      "▁universe": 5980,
      "ock": 5981,
      "▁remote": 5982,
      "iously": 5983,
      "ieve": 5984,
      "▁venture": 5985,
      "owing": 5986,
      "▁Vijayan": 5987,
      "▁William": 5988,
      "yn": 5989,
      "▁portal": 5990,
      "▁lesson": 5991,
      "▁Jaipur": 5992,
      "ret": 5993,
      "▁heavily": 5994,
      "▁orange": 5995,
      "▁apex": 5996,
      "▁appreciate": 5997,
      "▁cloud": 5998,
      ",999": 5999,
      "▁1996": 6000,
      "▁USD": 6001,
      "▁Working": 6002,
      "▁delayed": 6003,
      "▁Band": 6004,
      "▁trials": 6005,
      "▁Relations": 6006,
      "▁stream": 6007,
      ".20": 6008,
      "▁crazy": 6009,
      "▁visual": 6010,
      "▁confirm": 6011,
      "▁translated": 6012,
      "▁traveling": 6013,
      "▁fallen": 6014,
      "▁rev": 6015,
      "inking": 6016,
      "▁split": 6017,
      "▁sens": 6018,
      "▁database": 6019,
      "▁flower": 6020,
      "▁coll": 6021,
      "▁grade": 6022,
      "▁Between": 6023,
      "be": 6024,
      "▁representative": 6025,
      "▁thin": 6026,
      "ohyd": 6027,
      "▁cups": 6028,
      "▁Nag": 6029,
      "▁Non": 6030,
      "▁Officials": 6031,
      "▁inches": 6032,
      "▁TH": 6033,
      "▁treatments": 6034,
      "▁indicates": 6035,
      "▁transform": 6036,
      "▁2.5": 6037,
      "tal": 6038,
      "▁stuck": 6039,
      "▁actively": 6040,
      "▁interaction": 6041,
      "▁Gul": 6042,
      "▁reviewed": 6043,
      "ashi": 6044,
      "▁Ob": 6045,
      "aly": 6046,
      "▁hosted": 6047,
      "▁Meteorological": 6048,
      "▁Nat": 6049,
      "▁prevention": 6050,
      "umin": 6051,
      "▁Report": 6052,
      "form": 6053,
      "▁proteins": 6054,
      "▁occasions": 6055,
      "RA": 6056,
      "▁batting": 6057,
      "▁Body": 6058,
      "▁Pand": 6059,
      "▁targeted": 6060,
      "▁66": 6061,
      "▁Parliamentary": 6062,
      "▁writes": 6063,
      "▁gorgeous": 6064,
      "▁recording": 6065,
      "IL": 6066,
      "▁Philippines": 6067,
      "alk": 6068,
      "ume": 6069,
      "▁celebrating": 6070,
      "▁satisfaction": 6071,
      "▁Sukh": 6072,
      "▁establishment": 6073,
      "▁Goyal": 6074,
      "▁integrated": 6075,
      "▁managing": 6076,
      "▁graduate": 6077,
      "▁Kim": 6078,
      "▁resource": 6079,
      "▁engineer": 6080,
      "▁Island": 6081,
      "▁vaccinated": 6082,
      "asing": 6083,
      "load": 6084,
      "▁Hasan": 6085,
      "▁frame": 6086,
      "ingly": 6087,
      "▁prosperity": 6088,
      "▁Prophet": 6089,
      "▁swimming": 6090,
      "▁Ha": 6091,
      "▁drawn": 6092,
      "▁designs": 6093,
      "▁succeeded": 6094,
      "▁mod": 6095,
      "▁starred": 6096,
      "▁Others": 6097,
      "party": 6098,
      "▁encouraged": 6099,
      "▁NC": 6100,
      "▁deals": 6101,
      "▁smoke": 6102,
      "▁Steve": 6103,
      "▁Want": 6104,
      "▁kilometres": 6105,
      "▁Net": 6106,
      "▁dev": 6107,
      "ishes": 6108,
      "▁lowest": 6109,
      "▁organ": 6110,
      "▁roll": 6111,
      "▁seventh": 6112,
      "▁chocolate": 6113,
      "itor": 6114,
      "▁Market": 6115,
      "quality": 6116,
      "▁confirmation": 6117,
      "▁Asked": 6118,
      "▁Indo": 6119,
      "▁Subsequently": 6120,
      "▁converted": 6121,
      "▁Sindhu": 6122,
      "aches": 6123,
      "Is": 6124,
      "▁Robert": 6125,
      "RS": 6126,
      "▁ending": 6127,
      "month": 6128,
      "roid": 6129,
      "▁ICICI": 6130,
      "▁Safety": 6131,
      "▁neighbours": 6132,
      "▁arranged": 6133,
      "▁Pulwama": 6134,
      "▁investing": 6135,
      "▁proven": 6136,
      "▁locked": 6137,
      "▁enjoying": 6138,
      "▁beg": 6139,
      "▁BC": 6140,
      "▁strengthening": 6141,
      "▁Pandya": 6142,
      "ned": 6143,
      "▁experiencing": 6144,
      "▁conspiracy": 6145,
      "ologists": 6146,
      "▁commit": 6147,
      "iance": 6148,
      "▁hardware": 6149,
      "▁Mahendra": 6150,
      "▁explore": 6151,
      "▁hidden": 6152,
      "▁Fort": 6153,
      "▁stolen": 6154,
      "▁towns": 6155,
      "▁Eat": 6156,
      "imum": 6157,
      "▁superstar": 6158,
      "▁Azad": 6159,
      "▁diagnosed": 6160,
      "▁Traffic": 6161,
      "▁festivals": 6162,
      "In": 6163,
      "▁assessment": 6164,
      "▁DNA": 6165,
      "▁Govt": 6166,
      "iples": 6167,
      "▁artificial": 6168,
      "uth": 6169,
      "▁intense": 6170,
      "▁brilliant": 6171,
      "pr": 6172,
      "▁iPad": 6173,
      "▁Hope": 6174,
      "▁topics": 6175,
      "▁Modern": 6176,
      "▁Daily": 6177,
      "▁Vish": 6178,
      "▁Care": 6179,
      "illed": 6180,
      "▁varieties": 6181,
      "▁clashes": 6182,
      "▁SA": 6183,
      "▁Enter": 6184,
      "▁folks": 6185,
      "rol": 6186,
      "▁amaz": 6187,
      "▁overcome": 6188,
      "▁disorder": 6189,
      "▁Ang": 6190,
      "▁corn": 6191,
      "▁cre": 6192,
      "▁defense": 6193,
      "▁largely": 6194,
      "rab": 6195,
      "anta": 6196,
      "▁Kam": 6197,
      "▁Nevertheless": 6198,
      "▁Wash": 6199,
      "ony": 6200,
      "▁interact": 6201,
      "▁Prevention": 6202,
      "▁kilometers": 6203,
      "▁attempted": 6204,
      "▁airports": 6205,
      "▁substance": 6206,
      "▁CP": 6207,
      "▁Redmi": 6208,
      "▁statistics": 6209,
      "person": 6210,
      "▁ring": 6211,
      "▁Urban": 6212,
      "▁contributed": 6213,
      "▁corporation": 6214,
      "inda": 6215,
      "▁darkness": 6216,
      "▁writers": 6217,
      "▁mic": 6218,
      "▁dem": 6219,
      "erv": 6220,
      "▁tremendous": 6221,
      "▁blind": 6222,
      "▁talented": 6223,
      "ude": 6224,
      "ulating": 6225,
      "▁ne": 6226,
      "▁Ps": 6227,
      "▁marked": 6228,
      "▁pointed": 6229,
      "▁importantly": 6230,
      "▁acquired": 6231,
      "▁manufactured": 6232,
      "▁soldier": 6233,
      "▁plot": 6234,
      "▁cop": 6235,
      "ki": 6236,
      "▁Ganguly": 6237,
      "▁Maj": 6238,
      "▁AB": 6239,
      "▁punished": 6240,
      "eshwar": 6241,
      "▁athletes": 6242,
      "▁threats": 6243,
      "▁Books": 6244,
      "▁Met": 6245,
      "▁gang": 6246,
      "▁missed": 6247,
      "▁directors": 6248,
      "▁bound": 6249,
      "ura": 6250,
      "▁Legislative": 6251,
      "▁mosque": 6252,
      "▁Chidambaram": 6253,
      "▁passion": 6254,
      "▁advocate": 6255,
      "▁holidays": 6256,
      "▁roof": 6257,
      "▁spices": 6258,
      "long": 6259,
      "za": 6260,
      "▁Moses": 6261,
      "▁horm": 6262,
      "▁ultimately": 6263,
      "▁Sand": 6264,
      "▁generations": 6265,
      "▁habits": 6266,
      "commerce": 6267,
      "ature": 6268,
      "▁examined": 6269,
      "▁contained": 6270,
      "earing": 6271,
      "▁tonnes": 6272,
      "ao": 6273,
      "▁Switzerland": 6274,
      "▁struck": 6275,
      "▁Pray": 6276,
      "▁Line": 6277,
      "oun": 6278,
      "▁Revolution": 6279,
      "▁ODIs": 6280,
      "▁Fans": 6281,
      "▁RJD": 6282,
      "state": 6283,
      "▁flying": 6284,
      "▁EC": 6285,
      "▁predicted": 6286,
      "▁exports": 6287,
      "▁mel": 6288,
      "▁Kabul": 6289,
      "▁institute": 6290,
      "▁Welcome": 6291,
      "▁supplied": 6292,
      "▁700": 6293,
      "▁Padma": 6294,
      "▁structures": 6295,
      "▁Bhushan": 6296,
      "inary": 6297,
      "▁Pres": 6298,
      "ff": 6299,
      "▁balanced": 6300,
      "▁constitutional": 6301,
      "ili": 6302,
      "▁entrepreneurs": 6303,
      "▁longest": 6304,
      "▁gra": 6305,
      "▁Med": 6306,
      "▁Put": 6307,
      "▁magazine": 6308,
      "▁Labour": 6309,
      "▁resulting": 6310,
      "wing": 6311,
      "▁exhibition": 6312,
      "ward": 6313,
      "▁mothers": 6314,
      "▁tender": 6315,
      "▁Rep": 6316,
      "▁shame": 6317,
      "▁certificates": 6318,
      "▁doubts": 6319,
      "▁airline": 6320,
      "▁Command": 6321,
      "▁culprits": 6322,
      "▁Hotel": 6323,
      "▁administered": 6324,
      "▁fulfill": 6325,
      "▁escaped": 6326,
      "ject": 6327,
      "▁burn": 6328,
      "▁equ": 6329,
      "▁divorce": 6330,
      "▁Mag": 6331,
      "▁league": 6332,
      "▁Mill": 6333,
      "▁instant": 6334,
      "▁125": 6335,
      "▁reaches": 6336,
      "▁demise": 6337,
      "▁Val": 6338,
      "▁cel": 6339,
      "▁praise": 6340,
      "▁Mix": 6341,
      "▁waters": 6342,
      "▁Authorities": 6343,
      "▁Cultural": 6344,
      "^": 6345,
      "▁postponed": 6346,
      "▁newspapers": 6347,
      "▁arise": 6348,
      "▁Islands": 6349,
      "▁Ashwin": 6350,
      "▁extension": 6351,
      "eds": 6352,
      "▁1994": 6353,
      "▁Third": 6354,
      "urb": 6355,
      "▁typical": 6356,
      "▁prizes": 6357,
      "▁Creat": 6358,
      "▁collapsed": 6359,
      "▁accomplish": 6360,
      "▁knowing": 6361,
      "▁Question": 6362,
      "▁norms": 6363,
      "▁1970": 6364,
      "▁firms": 6365,
      "lish": 6366,
      "▁sol": 6367,
      "▁Angeles": 6368,
      "▁Arabic": 6369,
      "▁push": 6370,
      "▁hockey": 6371,
      "▁inflammation": 6372,
      "▁violent": 6373,
      "▁essentially": 6374,
      "▁entitled": 6375,
      "▁Varun": 6376,
      "▁Arts": 6377,
      "▁74": 6378,
      "▁Natural": 6379,
      "bal": 6380,
      "▁universal": 6381,
      "▁refund": 6382,
      "▁Hall": 6383,
      "▁regime": 6384,
      "▁Anti": 6385,
      "▁widespread": 6386,
      "▁Forces": 6387,
      "ashed": 6388,
      "▁minds": 6389,
      "AL": 6390,
      "▁counsel": 6391,
      "▁observe": 6392,
      "▁arguments": 6393,
      "▁moves": 6394,
      "▁Alam": 6395,
      "▁poly": 6396,
      "▁overnight": 6397,
      "▁Johar": 6398,
      "▁slogans": 6399,
      "▁Gopal": 6400,
      "▁67": 6401,
      "▁NE": 6402,
      "▁musical": 6403,
      "uous": 6404,
      "▁simpl": 6405,
      "▁Heart": 6406,
      "ulations": 6407,
      "▁hell": 6408,
      "▁hill": 6409,
      "▁lighting": 6410,
      "▁psychological": 6411,
      "▁1997": 6412,
      "▁delegation": 6413,
      "▁smell": 6414,
      "▁scientist": 6415,
      "▁suggests": 6416,
      "▁remarkable": 6417,
      "ike": 6418,
      "▁immunity": 6419,
      "▁loud": 6420,
      "▁creates": 6421,
      "ower": 6422,
      "ills": 6423,
      "▁operated": 6424,
      "▁secured": 6425,
      "▁favor": 6426,
      "ava": 6427,
      "▁servants": 6428,
      "▁BBC": 6429,
      "▁ver": 6430,
      "▁regret": 6431,
      "▁mentally": 6432,
      "▁banner": 6433,
      "▁tr": 6434,
      "▁fellow": 6435,
      "▁NIA": 6436,
      "▁bother": 6437,
      "▁separated": 6438,
      "▁beans": 6439,
      "▁improves": 6440,
      "▁rounds": 6441,
      "▁proceedings": 6442,
      "▁Az": 6443,
      "▁pump": 6444,
      "▁wise": 6445,
      "▁speaker": 6446,
      "▁routine": 6447,
      "▁reform": 6448,
      "▁harassment": 6449,
      "▁congrat": 6450,
      "▁examinations": 6451,
      "▁Ranaut": 6452,
      "▁employed": 6453,
      "▁Iranian": 6454,
      "▁med": 6455,
      "▁Tim": 6456,
      "elled": 6457,
      "oes": 6458,
      "▁municipal": 6459,
      "▁avoided": 6460,
      "▁drawing": 6461,
      "▁Harsh": 6462,
      "▁Tripura": 6463,
      "▁1991": 6464,
      "▁repeatedly": 6465,
      "99": 6466,
      "▁Seven": 6467,
      "▁Lahore": 6468,
      "▁Form": 6469,
      "▁framework": 6470,
      "▁£": 6471,
      "▁63": 6472,
      "rim": 6473,
      "▁Sushma": 6474,
      "▁belonging": 6475,
      "▁Mi": 6476,
      "oa": 6477,
      "▁blessings": 6478,
      "▁theatre": 6479,
      "▁Nearly": 6480,
      "▁Companies": 6481,
      "▁spouse": 6482,
      "▁fertil": 6483,
      "▁bra": 6484,
      "▁turning": 6485,
      "▁Putin": 6486,
      "▁comparison": 6487,
      "▁www": 6488,
      "▁makers": 6489,
      "▁coalition": 6490,
      "▁Communist": 6491,
      "▁Allahabad": 6492,
      "▁Pur": 6493,
      "▁facilitate": 6494,
      "akumar": 6495,
      "▁50,000": 6496,
      "▁Argentina": 6497,
      "▁Kochi": 6498,
      "▁tons": 6499,
      ",4": 6500,
      "▁dying": 6501,
      "▁nab": 6502,
      "▁raising": 6503,
      "▁HT": 6504,
      "▁mish": 6505,
      "▁involving": 6506,
      "▁Maruti": 6507,
      "▁branches": 6508,
      "▁Higher": 6509,
      "▁drops": 6510,
      "▁badly": 6511,
      "▁washing": 6512,
      "▁Rav": 6513,
      "▁1993": 6514,
      "▁Cooperation": 6515,
      "▁Something": 6516,
      "▁refriger": 6517,
      "▁Sav": 6518,
      "▁Compl": 6519,
      "▁module": 6520,
      "ua": 6521,
      "▁Sardar": 6522,
      "▁impressive": 6523,
      "▁Tra": 6524,
      "▁lasted": 6525,
      "▁Travel": 6526,
      "▁saving": 6527,
      "▁ISRO": 6528,
      "▁fishing": 6529,
      "▁Pe": 6530,
      "▁consume": 6531,
      "▁involvement": 6532,
      "days": 6533,
      "▁laptop": 6534,
      "▁engage": 6535,
      "mm": 6536,
      "iding": 6537,
      "▁ships": 6538,
      "▁Ka": 6539,
      "▁MoU": 6540,
      "▁Sonam": 6541,
      "▁lo": 6542,
      "▁Sign": 6543,
      "asa": 6544,
      "▁cord": 6545,
      "▁NO": 6546,
      "▁Citizenship": 6547,
      "▁Sandeep": 6548,
      "▁5,000": 6549,
      "ires": 6550,
      "▁sy": 6551,
      "▁Medicine": 6552,
      "▁chemicals": 6553,
      "▁kn": 6554,
      "▁relative": 6555,
      "icy": 6556,
      "▁cyber": 6557,
      "▁transaction": 6558,
      "▁switch": 6559,
      "▁Hum": 6560,
      "▁Arora": 6561,
      "▁Vikram": 6562,
      "du": 6563,
      "▁innovative": 6564,
      "▁performances": 6565,
      "▁stim": 6566,
      "▁gap": 6567,
      "▁Hasina": 6568,
      "▁BNP": 6569,
      "▁namely": 6570,
      "▁Nadda": 6571,
      "▁Mod": 6572,
      "▁immense": 6573,
      "▁hub": 6574,
      "▁richest": 6575,
      "▁tribute": 6576,
      "-5": 6577,
      "avan": 6578,
      "▁Country": 6579,
      "▁photography": 6580,
      "▁Dinesh": 6581,
      "vent": 6582,
      "▁pers": 6583,
      "made": 6584,
      "▁accomplished": 6585,
      "▁Directorate": 6586,
      "cc": 6587,
      "▁apolog": 6588,
      "▁shift": 6589,
      "▁Ba": 6590,
      "▁CB": 6591,
      "▁Doctor": 6592,
      "▁simultaneously": 6593,
      "▁Catholic": 6594,
      "▁compare": 6595,
      "ocks": 6596,
      "▁completing": 6597,
      "▁Dep": 6598,
      "▁rank": 6599,
      "▁Hardik": 6600,
      "IT": 6601,
      "▁paint": 6602,
      "mni_Mtei": 6603,
      "▁Lakh": 6604,
      "▁territories": 6605,
      "▁130": 6606,
      "house": 6607,
      "irus": 6608,
      "▁grows": 6609,
      "▁horse": 6610,
      "▁profits": 6611,
      "▁Ty": 6612,
      "▁decor": 6613,
      "▁organs": 6614,
      "▁restore": 6615,
      "▁babies": 6616,
      "▁Aut": 6617,
      ",7": 6618,
      "▁Charles": 6619,
      "▁Tiger": 6620,
      "▁End": 6621,
      "▁criteria": 6622,
      "ears": 6623,
      "▁routes": 6624,
      "▁1950": 6625,
      "▁decorated": 6626,
      "▁bones": 6627,
      "▁moderate": 6628,
      "▁CE": 6629,
      "▁Teachers": 6630,
      "▁Through": 6631,
      "▁absconding": 6632,
      "▁Chris": 6633,
      "▁Site": 6634,
      "▁disrupted": 6635,
      "ensive": 6636,
      "▁habit": 6637,
      "▁enterprise": 6638,
      "▁Mayor": 6639,
      "▁Ganga": 6640,
      "▁functional": 6641,
      "▁Kot": 6642,
      "▁Varanasi": 6643,
      "▁frequency": 6644,
      "▁protecting": 6645,
      "▁Aryan": 6646,
      "▁gate": 6647,
      "▁unf": 6648,
      ",2": 6649,
      "▁Rome": 6650,
      "▁achievements": 6651,
      "▁stunning": 6652,
      "▁stadium": 6653,
      "gin": 6654,
      "▁Manager": 6655,
      "▁dancing": 6656,
      "▁Deshmukh": 6657,
      "▁Cancer": 6658,
      "▁Tour": 6659,
      "▁Addressing": 6660,
      "▁Narayan": 6661,
      "22": 6662,
      "▁Vid": 6663,
      "ahs": 6664,
      "▁hike": 6665,
      "ads": 6666,
      "▁Story": 6667,
      "▁flav": 6668,
      "▁Harry": 6669,
      "▁permit": 6670,
      "▁adjust": 6671,
      "▁opens": 6672,
      "▁announce": 6673,
      "ult": 6674,
      "▁Arunachal": 6675,
      "dom": 6676,
      "▁Dar": 6677,
      "▁Luke": 6678,
      "▁Ki": 6679,
      "▁mechanical": 6680,
      "cle": 6681,
      "▁Cop": 6682,
      "▁designer": 6683,
      "▁dishes": 6684,
      "▁Madras": 6685,
      "screen": 6686,
      "▁1960": 6687,
      "ased": 6688,
      "▁criticised": 6689,
      "▁absolute": 6690,
      "isha": 6691,
      "▁68": 6692,
      "▁harder": 6693,
      "▁youths": 6694,
      "▁equality": 6695,
      "▁Secondary": 6696,
      "▁discover": 6697,
      "▁350": 6698,
      "▁Jews": 6699,
      "▁convicted": 6700,
      "▁moral": 6701,
      "atives": 6702,
      "▁Suzuki": 6703,
      "ull": 6704,
      "▁Ast": 6705,
      "aved": 6706,
      "ET": 6707,
      "▁Na": 6708,
      "▁Golden": 6709,
      "▁PV": 6710,
      "▁Trinamool": 6711,
      "▁Investment": 6712,
      "zy": 6713,
      "▁Ke": 6714,
      "▁Nokia": 6715,
      "▁undertaken": 6716,
      "▁roughly": 6717,
      "▁coastal": 6718,
      "lin": 6719,
      "▁77": 6720,
      "▁Rain": 6721,
      "▁apparently": 6722,
      "▁sacrifice": 6723,
      "▁baking": 6724,
      "▁metro": 6725,
      "▁Type": 6726,
      "▁membership": 6727,
      "▁periods": 6728,
      "▁meets": 6729,
      "▁AIIMS": 6730,
      "▁Sang": 6731,
      "▁Sunny": 6732,
      "▁8-": 6733,
      ",1": 6734,
      "▁Rawat": 6735,
      "▁Prem": 6736,
      "uram": 6737,
      "like": 6738,
      "▁Pradhan": 6739,
      "▁wisdom": 6740,
      "yal": 6741,
      "▁forecast": 6742,
      "▁1995": 6743,
      "▁labourers": 6744,
      "▁diversity": 6745,
      "▁Kul": 6746,
      "emia": 6747,
      "▁fabric": 6748,
      "▁precious": 6749,
      "lete": 6750,
      "▁respected": 6751,
      "▁girlfriend": 6752,
      "▁mail": 6753,
      "▁Live": 6754,
      "▁glory": 6755,
      "▁ethnic": 6756,
      "▁Lake": 6757,
      "▁autopsy": 6758,
      "▁Sidd": 6759,
      "▁offence": 6760,
      "▁acres": 6761,
      "▁comedy": 6762,
      "▁Pad": 6763,
      "ा": 6764,
      "▁inv": 6765,
      "▁Community": 6766,
      "ept": 6767,
      "▁Bumrah": 6768,
      "och": 6769,
      "aur": 6770,
      "▁somewhat": 6771,
      "▁distancing": 6772,
      "▁shipping": 6773,
      "ald": 6774,
      "▁ble": 6775,
      "ING": 6776,
      "▁mild": 6777,
      "ih": 6778,
      "▁Nick": 6779,
      "uz": 6780,
      "▁unclear": 6781,
      "ails": 6782,
      "▁Md": 6783,
      "▁unlimited": 6784,
      "▁Hussain": 6785,
      "▁Ragh": 6786,
      "▁Tri": 6787,
      "▁considerable": 6788,
      "▁delighted": 6789,
      "oned": 6790,
      "▁Aditya": 6791,
      "▁keen": 6792,
      "▁mechanism": 6793,
      "▁resort": 6794,
      "▁debit": 6795,
      "▁latter": 6796,
      "▁processed": 6797,
      "▁translation": 6798,
      "▁activist": 6799,
      "▁Advani": 6800,
      "▁harmony": 6801,
      "▁convert": 6802,
      "▁respiratory": 6803,
      "▁frequent": 6804,
      "▁RE": 6805,
      "▁vessels": 6806,
      ",6": 6807,
      "▁Verma": 6808,
      "▁pal": 6809,
      "▁ded": 6810,
      "▁amid": 6811,
      "▁scary": 6812,
      "hood": 6813,
      "▁Kuldeep": 6814,
      "▁Ay": 6815,
      "▁Programme": 6816,
      "▁conver": 6817,
      "▁confusion": 6818,
      "RC": 6819,
      "▁assigned": 6820,
      "ett": 6821,
      "▁cotton": 6822,
      "ump": 6823,
      "oles": 6824,
      "▁Gand": 6825,
      "inated": 6826,
      "mal": 6827,
      "▁indicate": 6828,
      "▁disorders": 6829,
      "▁cheaper": 6830,
      "▁concrete": 6831,
      "▁achieving": 6832,
      "DF": 6833,
      "▁serves": 6834,
      "ees": 6835,
      "▁bottle": 6836,
      "ifies": 6837,
      "▁Usually": 6838,
      "▁detect": 6839,
      "▁excessive": 6840,
      "read": 6841,
      "▁Call": 6842,
      "▁reveal": 6843,
      ",3": 6844,
      "▁Approximately": 6845,
      "▁Samajwadi": 6846,
      "▁Organ": 6847,
      "▁checked": 6848,
      "▁transparent": 6849,
      "▁calculate": 6850,
      "▁requests": 6851,
      "▁Akhtar": 6852,
      "▁consumed": 6853,
      "any": 6854,
      "▁tears": 6855,
      "▁psych": 6856,
      "▁Prote": 6857,
      "▁Puri": 6858,
      "▁den": 6859,
      "▁beneficiaries": 6860,
      "▁forests": 6861,
      "▁Rajinikanth": 6862,
      "rec": 6863,
      "▁tall": 6864,
      "▁gifts": 6865,
      "▁2.0": 6866,
      "▁laughing": 6867,
      "▁Sol": 6868,
      "▁venue": 6869,
      "-6": 6870,
      "ga": 6871,
      "▁introduce": 6872,
      "▁unemployment": 6873,
      "▁ri": 6874,
      "▁compete": 6875,
      "▁Jal": 6876,
      "▁KL": 6877,
      "25": 6878,
      "▁Gh": 6879,
      "▁civilians": 6880,
      "▁producers": 6881,
      "▁Agra": 6882,
      "▁Marketing": 6883,
      "▁Ravindra": 6884,
      "▁Ambedkar": 6885,
      "▁cooked": 6886,
      "kh": 6887,
      "▁ast": 6888,
      "▁Islamabad": 6889,
      "▁define": 6890,
      "ials": 6891,
      "▁blessed": 6892,
      "▁vine": 6893,
      "▁Om": 6894,
      "▁Bhopal": 6895,
      "▁aside": 6896,
      "▁Mass": 6897,
      "aching": 6898,
      "▁br": 6899,
      "▁episode": 6900,
      "▁overseas": 6901,
      "uation": 6902,
      "▁Support": 6903,
      ",8": 6904,
      "aker": 6905,
      "▁Southern": 6906,
      "down": 6907,
      "ris": 6908,
      "▁Tr": 6909,
      "▁2-": 6910,
      "▁Far": 6911,
      "▁confused": 6912,
      "▁introduction": 6913,
      "▁traders": 6914,
      "▁₹": 6915,
      "▁hence": 6916,
      "▁ANI": 6917,
      "▁liquor": 6918,
      "▁Whatever": 6919,
      "▁Freedom": 6920,
      "▁Pant": 6921,
      "ister": 6922,
      "▁Sha": 6923,
      "▁Rana": 6924,
      "▁cle": 6925,
      "▁Aam": 6926,
      "▁casualties": 6927,
      "▁Sen": 6928,
      "▁Aviation": 6929,
      "▁Bharti": 6930,
      "▁col": 6931,
      "▁poems": 6932,
      "▁Madh": 6933,
      "▁acceptable": 6934,
      "▁Devgn": 6935,
      "▁formula": 6936,
      "▁1992": 6937,
      "sp": 6938,
      "▁syndrome": 6939,
      "▁cm": 6940,
      "▁DMK": 6941,
      "bi": 6942,
      "▁Kas": 6943,
      "star": 6944,
      "▁Pak": 6945,
      "▁diplomatic": 6946,
      "▁Already": 6947,
      "▁Ver": 6948,
      "▁Sud": 6949,
      "▁Follow": 6950,
      "-8": 6951,
      "▁EP": 6952,
      "▁Rakesh": 6953,
      "kin": 6954,
      "▁proceed": 6955,
      "▁lock": 6956,
      "▁emerging": 6957,
      "▁Punjabi": 6958,
      "DC": 6959,
      "aked": 6960,
      "inate": 6961,
      "▁Talking": 6962,
      "▁divide": 6963,
      "ests": 6964,
      "▁agitation": 6965,
      "▁Must": 6966,
      "▁Motors": 6967,
      "▁Gautam": 6968,
      "▁youngest": 6969,
      "▁JP": 6970,
      "▁Barack": 6971,
      "▁disclosed": 6972,
      "▁Full": 6973,
      "▁findings": 6974,
      "▁programming": 6975,
      "▁hits": 6976,
      "▁designated": 6977,
      "▁extraordinary": 6978,
      "▁strategies": 6979,
      "▁Martin": 6980,
      "▁Admission": 6981,
      "▁distinct": 6982,
      "▁providers": 6983,
      "oll": 6984,
      "▁Jack": 6985,
      "▁Eight": 6986,
      "▁camps": 6987,
      "▁magic": 6988,
      "eous": 6989,
      "▁Dil": 6990,
      "▁Bhutan": 6991,
      "▁timely": 6992,
      "▁expenditure": 6993,
      "▁worlds": 6994,
      "▁CS": 6995,
      "▁del": 6996,
      "▁Daniel": 6997,
      "▁residential": 6998,
      "▁savings": 6999,
      "ense": 7000,
      "▁Inspector": 7001,
      "▁rumours": 7002,
      "▁2,000": 7003,
      "▁champion": 7004,
      "▁sexually": 7005,
      "▁applicants": 7006,
      "▁fatty": 7007,
      "▁Football": 7008,
      "▁Bachelor": 7009,
      "▁Maldives": 7010,
      "▁segment": 7011,
      "rict": 7012,
      "▁Self": 7013,
      "▁operates": 7014,
      "▁wireless": 7015,
      "▁praised": 7016,
      "-7": 7017,
      "▁Mel": 7018,
      "ames": 7019,
      "▁minus": 7020,
      "▁folk": 7021,
      "▁tra": 7022,
      "▁containing": 7023,
      "▁Hundreds": 7024,
      "eless": 7025,
      "▁Studies": 7026,
      "▁Xiaomi": 7027,
      "▁transition": 7028,
      "▁plug": 7029,
      "▁Dhan": 7030,
      "▁bills": 7031,
      "▁Help": 7032,
      "▁phenomenon": 7033,
      "▁parameters": 7034,
      ",9": 7035,
      "▁eliminate": 7036,
      "▁educated": 7037,
      "▁lung": 7038,
      "▁1947": 7039,
      "▁NCB": 7040,
      "▁theft": 7041,
      "▁Mall": 7042,
      "▁instruction": 7043,
      "▁Governments": 7044,
      "ace": 7045,
      "▁€": 7046,
      "▁indicated": 7047,
      "▁breaking": 7048,
      "▁qualify": 7049,
      "▁preliminary": 7050,
      "ahar": 7051,
      "▁appearing": 7052,
      "▁microSD": 7053,
      "▁electoral": 7054,
      "▁Deepak": 7055,
      "ke": 7056,
      "▁filing": 7057,
      "▁nuts": 7058,
      "▁addresses": 7059,
      "▁nationals": 7060,
      "▁contributions": 7061,
      "ero": 7062,
      "▁default": 7063,
      "▁manufacture": 7064,
      "▁Sultan": 7065,
      "▁lab": 7066,
      "▁78": 7067,
      "▁classical": 7068,
      "▁narrow": 7069,
      "▁Lo": 7070,
      "▁reservation": 7071,
      "▁Meeting": 7072,
      "▁representing": 7073,
      "▁Prom": 7074,
      "▁00": 7075,
      "▁isolated": 7076,
      "▁TRS": 7077,
      "tain": 7078,
      "uch": 7079,
      "▁tab": 7080,
      "▁lens": 7081,
      "▁grace": 7082,
      "▁SO": 7083,
      "▁Airlines": 7084,
      "▁Battle": 7085,
      "▁mor": 7086,
      "▁regarded": 7087,
      "▁Shami": 7088,
      "▁fort": 7089,
      "iation": 7090,
      "▁increasingly": 7091,
      "▁removal": 7092,
      "▁69": 7093,
      "▁Som": 7094,
      "▁withdrawal": 7095,
      "▁id": 7096,
      "▁developments": 7097,
      "▁transmitted": 7098,
      "▁angle": 7099,
      "▁extract": 7100,
      "▁wished": 7101,
      "▁Rup": 7102,
      "▁Mor": 7103,
      "▁ears": 7104,
      "▁Judge": 7105,
      "▁Jadeja": 7106,
      "▁Pr": 7107,
      "▁zones": 7108,
      "osed": 7109,
      "▁restored": 7110,
      "field": 7111,
      "arian": 7112,
      "▁imm": 7113,
      "▁wet": 7114,
      "rin": 7115,
      "AD": 7116,
      "▁agenda": 7117,
      "▁Town": 7118,
      "go": 7119,
      "ont": 7120,
      "▁Dilip": 7121,
      "ship": 7122,
      "▁Florida": 7123,
      "TP": 7124,
      "▁integrity": 7125,
      "ount": 7126,
      "▁Beijing": 7127,
      "imes": 7128,
      "▁rent": 7129,
      "▁emb": 7130,
      "▁Khanna": 7131,
      "ook": 7132,
      "▁lawyers": 7133,
      "▁Technical": 7134,
      "▁Total": 7135,
      "▁Writ": 7136,
      "▁hel": 7137,
      "▁crude": 7138,
      "▁bowler": 7139,
      "▁restricted": 7140,
      "▁sees": 7141,
      ",0": 7142,
      "▁detected": 7143,
      "▁unveiled": 7144,
      "▁struggling": 7145,
      "▁contra": 7146,
      "▁rating": 7147,
      "▁pounds": 7148,
      "▁Bob": 7149,
      "oses": 7150,
      "▁withdrawn": 7151,
      "▁pr": 7152,
      "▁possess": 7153,
      "▁witnesses": 7154,
      "▁inqu": 7155,
      "▁thinks": 7156,
      "▁Intelligence": 7157,
      "▁Qatar": 7158,
      "rics": 7159,
      "▁Ranjan": 7160,
      "▁Vas": 7161,
      "▁Sahib": 7162,
      "ights": 7163,
      "▁tank": 7164,
      "▁copyright": 7165,
      "phone": 7166,
      "▁Officers": 7167,
      "▁76": 7168,
      ",5": 7169,
      "▁intake": 7170,
      "▁val": 7171,
      "▁allocated": 7172,
      "▁shocking": 7173,
      "RO": 7174,
      "aled": 7175,
      "▁EV": 7176,
      "pir": 7177,
      "▁unfortunate": 7178,
      "inners": 7179,
      "▁Ins": 7180,
      "reat": 7181,
      "▁governance": 7182,
      "rah": 7183,
      "▁cultures": 7184,
      "tained": 7185,
      "▁Greece": 7186,
      "ten": 7187,
      "▁Nation": 7188,
      "▁Same": 7189,
      "▁impressed": 7190,
      "▁Ms": 7191,
      "owned": 7192,
      "▁Swami": 7193,
      "▁AK": 7194,
      "American": 7195,
      "arpur": 7196,
      "oking": 7197,
      "▁Taiwan": 7198,
      "▁bowling": 7199,
      "▁movements": 7200,
      "▁edge": 7201,
      "gen": 7202,
      "▁Inst": 7203,
      "▁Bed": 7204,
      "▁Nagpur": 7205,
      "▁blamed": 7206,
      "▁reflect": 7207,
      "▁Happ": 7208,
      "▁Kund": 7209,
      "▁presentation": 7210,
      "▁Incre": 7211,
      "▁Girl": 7212,
      "▁risen": 7213,
      "▁Armed": 7214,
      "▁Rab": 7215,
      "▁inner": 7216,
      "▁Talk": 7217,
      "▁Vir": 7218,
      "omy": 7219,
      "▁hormone": 7220,
      "▁Abd": 7221,
      "▁washed": 7222,
      "▁Complete": 7223,
      "▁covering": 7224,
      "wood": 7225,
      "▁Jh": 7226,
      "▁filmmaker": 7227,
      "▁Much": 7228,
      "▁destruction": 7229,
      "▁pursue": 7230,
      "▁im": 7231,
      "▁roots": 7232,
      "▁vol": 7233,
      "▁Military": 7234,
      "▁pull": 7235,
      "▁challenged": 7236,
      "▁Rafale": 7237,
      "▁fighters": 7238,
      "▁specialist": 7239,
      "▁discipline": 7240,
      "▁cab": 7241,
      "ait": 7242,
      "▁imprisonment": 7243,
      "▁bid": 7244,
      "▁scope": 7245,
      "▁networking": 7246,
      "▁Legal": 7247,
      "▁Shar": 7248,
      "▁mercy": 7249,
      "▁ur": 7250,
      "▁Syed": 7251,
      "▁royal": 7252,
      "▁nomination": 7253,
      "▁couples": 7254,
      "▁assume": 7255,
      "▁connecting": 7256,
      "▁pen": 7257,
      "▁bars": 7258,
      "isc": 7259,
      "ports": 7260,
      "▁Bag": 7261,
      "ract": 7262,
      "▁limitations": 7263,
      "antly": 7264,
      "▁Anurag": 7265,
      "▁Div": 7266,
      "▁pulled": 7267,
      "▁Bah": 7268,
      "ela": 7269,
      "▁refugees": 7270,
      "▁broadcast": 7271,
      "▁exit": 7272,
      "▁fright": 7273,
      "▁Had": 7274,
      "▁tablet": 7275,
      "▁Bur": 7276,
      "▁agents": 7277,
      "▁Agricultural": 7278,
      "▁cap": 7279,
      "▁monsoon": 7280,
      "▁Steel": 7281,
      "▁plate": 7282,
      "anga": 7283,
      "▁lessons": 7284,
      "▁exposed": 7285,
      "▁bone": 7286,
      "▁Pol": 7287,
      "▁throw": 7288,
      "▁minority": 7289,
      "fall": 7290,
      "▁mankind": 7291,
      "rie": 7292,
      "▁viruses": 7293,
      "▁Sanskrit": 7294,
      "▁Mirza": 7295,
      "athy": 7296,
      "▁heading": 7297,
      "▁veteran": 7298,
      "▁Meh": 7299,
      "▁uncle": 7300,
      "ressed": 7301,
      "▁AS": 7302,
      "▁Directed": 7303,
      "▁Ep": 7304,
      "▁stylish": 7305,
      "▁fin": 7306,
      "▁Ganesh": 7307,
      "onal": 7308,
      "▁Left": 7309,
      "▁irrit": 7310,
      "ster": 7311,
      "uff": 7312,
      "hin": 7313,
      "▁brigade": 7314,
      "▁incorrect": 7315,
      "▁NASA": 7316,
      "▁Isa": 7317,
      "▁tear": 7318,
      "▁commented": 7319,
      "▁Gas": 7320,
      "illi": 7321,
      "arma": 7322,
      "▁consistent": 7323,
      "▁grains": 7324,
      "▁Goddess": 7325,
      "rified": 7326,
      "▁bre": 7327,
      "▁trends": 7328,
      "▁Rest": 7329,
      "▁1984": 7330,
      "▁Border": 7331,
      "▁laboratory": 7332,
      "president": 7333,
      "▁Chicago": 7334,
      "▁neighbouring": 7335,
      "orm": 7336,
      "gg": 7337,
      "▁tied": 7338,
      "▁sacred": 7339,
      "▁gains": 7340,
      "▁Jacob": 7341,
      "▁selfie": 7342,
      "▁NEW": 7343,
      "▁Exchange": 7344,
      "▁IAF": 7345,
      "▁tribal": 7346,
      "▁essay": 7347,
      "val": 7348,
      "▁heating": 7349,
      "▁separately": 7350,
      "▁73": 7351,
      "▁Series": 7352,
      "▁intelligent": 7353,
      "oud": 7354,
      "▁dust": 7355,
      "▁tap": 7356,
      "▁errors": 7357,
      "gu": 7358,
      "▁cutting": 7359,
      "24": 7360,
      "▁consuming": 7361,
      "ript": 7362,
      "▁Belgium": 7363,
      "▁patterns": 7364,
      "▁Disaster": 7365,
      "▁Snapdragon": 7366,
      "▁84": 7367,
      "▁hungry": 7368,
      "▁gram": 7369,
      "▁intervention": 7370,
      "jan": 7371,
      "▁Sector": 7372,
      "▁occupation": 7373,
      "▁reputation": 7374,
      "▁handling": 7375,
      "▁caution": 7376,
      "garh": 7377,
      "▁confidential": 7378,
      "▁trace": 7379,
      "▁mining": 7380,
      "▁enormous": 7381,
      "▁Atal": 7382,
      "▁gods": 7383,
      "▁cond": 7384,
      "▁grounds": 7385,
      "uru": 7386,
      "▁diss": 7387,
      "▁abandoned": 7388,
      "▁shoulder": 7389,
      "▁Saint": 7390,
      "ergic": 7391,
      "thi": 7392,
      "▁nonetheless": 7393,
      "▁beef": 7394,
      "▁anytime": 7395,
      "▁weird": 7396,
      "▁nearest": 7397,
      "▁Mun": 7398,
      "▁Order": 7399,
      "▁engineers": 7400,
      "▁reb": 7401,
      "▁circle": 7402,
      "▁carries": 7403,
      "▁UTs": 7404,
      "▁stakeholders": 7405,
      "iri": 7406,
      "▁interrog": 7407,
      "tered": 7408,
      "▁moist": 7409,
      "▁Dhar": 7410,
      "▁bleeding": 7411,
      "▁screens": 7412,
      "▁intellectual": 7413,
      "▁Within": 7414,
      "▁Process": 7415,
      "ball": 7416,
      "▁concentration": 7417,
      "▁imports": 7418,
      "▁Rel": 7419,
      "▁notified": 7420,
      "▁Sl": 7421,
      "▁rarely": 7422,
      "ament": 7423,
      "▁brave": 7424,
      "▁cant": 7425,
      "▁Equ": 7426,
      "ipp": 7427,
      "▁Job": 7428,
      "▁stepped": 7429,
      "▁civilian": 7430,
      "▁div": 7431,
      "▁Hem": 7432,
      "▁Rules": 7433,
      "▁decreased": 7434,
      "▁termed": 7435,
      "▁discrimination": 7436,
      "ork": 7437,
      "▁Adam": 7438,
      "▁Television": 7439,
      "▁chart": 7440,
      "▁servant": 7441,
      "▁conf": 7442,
      "▁20,000": 7443,
      "oi": 7444,
      "▁Malhotra": 7445,
      "▁backed": 7446,
      "▁Taking": 7447,
      "bl": 7448,
      "▁varies": 7449,
      "▁Amaz": 7450,
      "▁Brah": 7451,
      "▁acute": 7452,
      "▁disp": 7453,
      "▁throat": 7454,
      "▁communications": 7455,
      "▁tablets": 7456,
      "▁earliest": 7457,
      "▁derived": 7458,
      "▁1.2": 7459,
      "▁Dan": 7460,
      "▁Henry": 7461,
      "▁Region": 7462,
      "▁Jam": 7463,
      "tle": 7464,
      "▁Managing": 7465,
      "▁Silver": 7466,
      "▁businessman": 7467,
      "▁parks": 7468,
      "▁Brahm": 7469,
      "ij": 7470,
      "▁Rail": 7471,
      "▁hydrogen": 7472,
      "▁yield": 7473,
      "▁Bang": 7474,
      "uses": 7475,
      "▁communic": 7476,
      "zz": 7477,
      "▁1989": 7478,
      "▁reader": 7479,
      "▁hum": 7480,
      "▁undergo": 7481,
      "▁discussing": 7482,
      "here": 7483,
      "▁amenities": 7484,
      "▁chairperson": 7485,
      "▁aff": 7486,
      "ason": 7487,
      "eter": 7488,
      "▁accordingly": 7489,
      "▁Regional": 7490,
      "▁Tele": 7491,
      "▁contrast": 7492,
      "▁Clean": 7493,
      "▁Lakshmi": 7494,
      "▁collapse": 7495,
      "▁Chowdhury": 7496,
      "▁CC": 7497,
      "▁chill": 7498,
      "▁alter": 7499,
      "▁Denmark": 7500,
      "▁realised": 7501,
      "▁Scotland": 7502,
      "lend": 7503,
      "oj": 7504,
      "▁Aadmi": 7505,
      "▁Yash": 7506,
      "onic": 7507,
      "▁Tiwari": 7508,
      "▁MD": 7509,
      "▁Wikipedia": 7510,
      "FC": 7511,
      "▁Treatment": 7512,
      "▁AR": 7513,
      "itate": 7514,
      "ming": 7515,
      "▁Sridevi": 7516,
      "▁weakness": 7517,
      "▁Priv": 7518,
      "▁1971": 7519,
      "▁Ru": 7520,
      "▁receives": 7521,
      "▁Often": 7522,
      "▁Jackson": 7523,
      "▁Pinarayi": 7524,
      "▁recipe": 7525,
      "▁BSF": 7526,
      "▁Someone": 7527,
      "▁fluid": 7528,
      "aff": 7529,
      "▁gather": 7530,
      "TS": 7531,
      "▁agreements": 7532,
      "▁tag": 7533,
      "▁deserve": 7534,
      "▁mat": 7535,
      "▁Ten": 7536,
      "fl": 7537,
      "▁ignored": 7538,
      "▁Prices": 7539,
      "▁Jain": 7540,
      "gi": 7541,
      "arks": 7542,
      "▁NRC": 7543,
      "▁breathe": 7544,
      "▁bagged": 7545,
      "gy": 7546,
      "▁GPS": 7547,
      "▁Bitcoin": 7548,
      "▁soap": 7549,
      "▁tissue": 7550,
      "▁Ray": 7551,
      "▁disappeared": 7552,
      "▁sim": 7553,
      "▁attendance": 7554,
      "itnesses": 7555,
      "aim": 7556,
      "▁dairy": 7557,
      "rem": 7558,
      "▁Oxford": 7559,
      "BA": 7560,
      "▁specifications": 7561,
      "▁vulnerable": 7562,
      "ented": 7563,
      "▁duo": 7564,
      "▁fra": 7565,
      "II": 7566,
      "▁highlighted": 7567,
      "weight": 7568,
      "▁productivity": 7569,
      "ference": 7570,
      "▁circulation": 7571,
      "▁peoples": 7572,
      "▁Senate": 7573,
      "▁faculty": 7574,
      "vis": 7575,
      "▁adverse": 7576,
      "▁capture": 7577,
      "▁Ji": 7578,
      "▁Brown": 7579,
      "erc": 7580,
      "▁surrounded": 7581,
      "▁Gurd": 7582,
      "▁legend": 7583,
      "▁98": 7584,
      "▁outfit": 7585,
      "▁Chaudhary": 7586,
      "▁instances": 7587,
      "▁affecting": 7588,
      "had": 7589,
      "▁Mehta": 7590,
      "udd": 7591,
      "▁spo": 7592,
      "ident": 7593,
      "▁Films": 7594,
      "▁comply": 7595,
      "point": 7596,
      "ologies": 7597,
      "set": 7598,
      "▁Place": 7599,
      "▁Tem": 7600,
      "▁Vishnu": 7601,
      "▁Radio": 7602,
      "▁insult": 7603,
      "mar": 7604,
      "▁eng": 7605,
      "▁recommendation": 7606,
      "▁Ro": 7607,
      "▁radiation": 7608,
      "wide": 7609,
      "▁tow": 7610,
      "▁pred": 7611,
      "▁View": 7612,
      "▁burnt": 7613,
      "▁authors": 7614,
      "▁contrary": 7615,
      "▁County": 7616,
      "ional": 7617,
      "▁lifted": 7618,
      "born": 7619,
      "▁rot": 7620,
      "icular": 7621,
      "▁influenced": 7622,
      "▁Mizoram": 7623,
      "▁NS": 7624,
      "▁Petroleum": 7625,
      "▁reverse": 7626,
      "coh": 7627,
      "▁Key": 7628,
      "▁instructed": 7629,
      "▁Save": 7630,
      "▁instantly": 7631,
      "▁Jawaharlal": 7632,
      "▁Vajpayee": 7633,
      "araj": 7634,
      "MS": 7635,
      "▁workplace": 7636,
      "DI": 7637,
      "▁arrangement": 7638,
      "▁Deep": 7639,
      "irm": 7640,
      "▁Electronics": 7641,
      "▁Mike": 7642,
      "▁winds": 7643,
      "▁happ": 7644,
      "▁prestigious": 7645,
      "▁ranks": 7646,
      "▁Tomar": 7647,
      "▁tongue": 7648,
      "▁Roh": 7649,
      "▁shapes": 7650,
      "▁Wa": 7651,
      "▁formats": 7652,
      "▁unlikely": 7653,
      "▁140": 7654,
      "aka": 7655,
      "▁abilities": 7656,
      "▁remake": 7657,
      "▁gu": 7658,
      "▁draft": 7659,
      "▁predict": 7660,
      "▁measured": 7661,
      "▁cra": 7662,
      "▁actresses": 7663,
      "▁Amritsar": 7664,
      "▁bow": 7665,
      "iment": 7666,
      "▁ports": 7667,
      "▁Climate": 7668,
      "▁ir": 7669,
      "ls": 7670,
      "pes": 7671,
      "▁boundary": 7672,
      "▁examine": 7673,
      "▁invite": 7674,
      "awa": 7675,
      "▁sheep": 7676,
      "ae": 7677,
      "▁stocks": 7678,
      "▁executed": 7679,
      "▁phosph": 7680,
      "▁controls": 7681,
      "eness": 7682,
      "▁Memorial": 7683,
      "▁Jai": 7684,
      "▁unnecessary": 7685,
      "pa": 7686,
      "▁Poland": 7687,
      "rying": 7688,
      "▁Accordingly": 7689,
      "▁instrument": 7690,
      "▁asset": 7691,
      "ords": 7692,
      "▁mal": 7693,
      "▁worshi": 7694,
      "▁Er": 7695,
      "▁solely": 7696,
      "▁Student": 7697,
      "▁leaf": 7698,
      "▁exclusive": 7699,
      "▁Build": 7700,
      "▁scenario": 7701,
      "▁sole": 7702,
      "▁engagement": 7703,
      "▁supplement": 7704,
      "▁mob": 7705,
      "▁mathematics": 7706,
      "▁Deb": 7707,
      "▁scenes": 7708,
      "▁Forum": 7709,
      "▁cleaned": 7710,
      "▁troubles": 7711,
      "▁copies": 7712,
      "organ": 7713,
      "▁Awami": 7714,
      "▁Champions": 7715,
      "▁remedy": 7716,
      "own": 7717,
      "▁Baba": 7718,
      "▁golf": 7719,
      "▁Fe": 7720,
      "▁88": 7721,
      "▁visits": 7722,
      "▁conservation": 7723,
      "▁Mil": 7724,
      "▁wherever": 7725,
      "EL": 7726,
      "▁Badal": 7727,
      "ison": 7728,
      "▁cart": 7729,
      "▁resist": 7730,
      "ergies": 7731,
      "▁gross": 7732,
      "bing": 7733,
      "▁83": 7734,
      "▁Upon": 7735,
      "▁Ayurveda": 7736,
      "▁purchasing": 7737,
      "▁rupee": 7738,
      "▁upload": 7739,
      "▁triple": 7740,
      "▁160": 7741,
      "▁Birthday": 7742,
      "▁Born": 7743,
      "▁Front": 7744,
      "▁torque": 7745,
      "lets": 7746,
      "▁Nature": 7747,
      "▁Aj": 7748,
      "▁": 7749,
      "▁CPM": 7750,
      "▁Date": 7751,
      "alled": 7752,
      "▁tragedy": 7753,
      "▁slot": 7754,
      "▁substantial": 7755,
      "▁contemporary": 7756,
      "▁UPA": 7757,
      "▁Ghosh": 7758,
      "▁occupied": 7759,
      "▁hardly": 7760,
      "▁unfortunately": 7761,
      "▁realise": 7762,
      "▁buyers": 7763,
      "▁Quest": 7764,
      "rot": 7765,
      "▁icon": 7766,
      "▁triggered": 7767,
      "FI": 7768,
      "▁beh": 7769,
      "▁removing": 7770,
      "▁unidentified": 7771,
      "▁Micro": 7772,
      "▁Chandrababu": 7773,
      "▁deny": 7774,
      "▁Rama": 7775,
      "▁manifest": 7776,
      "▁explains": 7777,
      "▁Baby": 7778,
      "▁86": 7779,
      "essed": 7780,
      "▁Game": 7781,
      "23": 7782,
      "asi": 7783,
      "▁Po": 7784,
      "▁Fre": 7785,
      "▁Mount": 7786,
      "ulated": 7787,
      "▁Char": 7788,
      "▁decre": 7789,
      "▁FI": 7790,
      "▁rob": 7791,
      ".30": 7792,
      "▁gratitude": 7793,
      "▁aut": 7794,
      "▁bowlers": 7795,
      "▁critic": 7796,
      "aze": 7797,
      "head": 7798,
      "▁Akhilesh": 7799,
      "▁Haz": 7800,
      "▁subsequent": 7801,
      "▁Educational": 7802,
      "▁flows": 7803,
      "ound": 7804,
      "▁Mas": 7805,
      "▁valley": 7806,
      "▁tech": 7807,
      "▁enables": 7808,
      "add": 7809,
      "▁profitable": 7810,
      "▁stupid": 7811,
      "tern": 7812,
      "▁Abbas": 7813,
      "nath": 7814,
      "▁SUV": 7815,
      "urg": 7816,
      "▁implementing": 7817,
      "lam": 7818,
      "urn": 7819,
      "▁autom": 7820,
      "itt": 7821,
      "friendly": 7822,
      "▁contested": 7823,
      "▁annoy": 7824,
      "▁authentic": 7825,
      "▁Panchayat": 7826,
      "▁wing": 7827,
      "▁precautions": 7828,
      "90": 7829,
      "▁Collector": 7830,
      "▁Mus": 7831,
      "▁equity": 7832,
      "▁publication": 7833,
      "▁Barcelona": 7834,
      "▁franchise": 7835,
      "▁streaming": 7836,
      "▁spots": 7837,
      "aran": 7838,
      "▁Scientists": 7839,
      "▁screening": 7840,
      "▁exposure": 7841,
      "▁attracted": 7842,
      "iti": 7843,
      "▁Defense": 7844,
      "lers": 7845,
      "▁seasons": 7846,
      "▁Tar": 7847,
      "▁Alt": 7848,
      "▁Rhea": 7849,
      "▁der": 7850,
      "▁dig": 7851,
      "▁Manchester": 7852,
      "▁po": 7853,
      "▁Emirates": 7854,
      "▁Warner": 7855,
      "▁Urdu": 7856,
      "▁commenced": 7857,
      "▁rises": 7858,
      "▁targets": 7859,
      "▁tweets": 7860,
      "▁beaten": 7861,
      "bo": 7862,
      "▁seeks": 7863,
      "▁mystery": 7864,
      "▁printing": 7865,
      "▁apple": 7866,
      "▁complications": 7867,
      "▁Meghalaya": 7868,
      "▁reporting": 7869,
      "▁Convention": 7870,
      "▁tiny": 7871,
      "▁fame": 7872,
      "otic": 7873,
      "mAh": 7874,
      "70": 7875,
      "NC": 7876,
      "▁Kanpur": 7877,
      "▁resume": 7878,
      "▁jack": 7879,
      "▁concepts": 7880,
      "▁pronounced": 7881,
      "▁giant": 7882,
      "ica": 7883,
      "▁Stat": 7884,
      "▁lovers": 7885,
      "▁Direct": 7886,
      "▁MA": 7887,
      "▁literary": 7888,
      "▁mineral": 7889,
      "▁tracks": 7890,
      "▁printed": 7891,
      "▁burden": 7892,
      "een": 7893,
      "▁Jewish": 7894,
      "▁Degree": 7895,
      "▁acc": 7896,
      "▁Clinton": 7897,
      "▁travelled": 7898,
      "▁graphics": 7899,
      "uro": 7900,
      "▁remanded": 7901,
      "▁theater": 7902,
      "▁acquire": 7903,
      "icles": 7904,
      "▁consist": 7905,
      "▁Area": 7906,
      "▁tackle": 7907,
      "▁plain": 7908,
      "▁fibre": 7909,
      "▁assess": 7910,
      "▁rad": 7911,
      "▁Piyush": 7912,
      "▁ascer": 7913,
      "▁97": 7914,
      "▁cope": 7915,
      "ouse": 7916,
      "▁Looking": 7917,
      "outs": 7918,
      "▁3.5": 7919,
      "▁crashed": 7920,
      "▁Different": 7921,
      "▁classified": 7922,
      "▁Jadhav": 7923,
      "▁Using": 7924,
      "▁trusted": 7925,
      "▁spin": 7926,
      "▁Pet": 7927,
      "▁Index": 7928,
      "▁Agarwal": 7929,
      "rees": 7930,
      "▁rely": 7931,
      "▁shelter": 7932,
      "▁weekly": 7933,
      "▁Sym": 7934,
      "▁heated": 7935,
      "▁Tan": 7936,
      "▁ignore": 7937,
      "crib": 7938,
      "▁Boy": 7939,
      "▁MT": 7940,
      "▁Marriage": 7941,
      "▁Yojana": 7942,
      "▁hydro": 7943,
      "lessly": 7944,
      "▁flowing": 7945,
      "tains": 7946,
      "▁Furthermore": 7947,
      "▁destinations": 7948,
      "izer": 7949,
      "▁71": 7950,
      "▁Hello": 7951,
      "▁rankings": 7952,
      "▁treating": 7953,
      "▁titles": 7954,
      "▁fib": 7955,
      "▁consultation": 7956,
      "▁innocent": 7957,
      "▁ho": 7958,
      "east": 7959,
      "igh": 7960,
      "osition": 7961,
      "▁Indore": 7962,
      "▁defend": 7963,
      "▁Loc": 7964,
      "▁dried": 7965,
      "▁emphasis": 7966,
      "▁corresponding": 7967,
      "▁uploaded": 7968,
      "▁Cool": 7969,
      "icking": 7970,
      "▁Revenue": 7971,
      "▁Nam": 7972,
      "▁Night": 7973,
      "fare": 7974,
      "▁NH": 7975,
      "▁tem": 7976,
      "▁Medic": 7977,
      "▁starring": 7978,
      "▁terminal": 7979,
      "▁designers": 7980,
      "▁releases": 7981,
      "▁affair": 7982,
      "▁existed": 7983,
      "▁afterwards": 7984,
      "▁inflation": 7985,
      "itors": 7986,
      "▁Planning": 7987,
      "▁hur": 7988,
      "▁focusing": 7989,
      "▁Romans": 7990,
      "ift": 7991,
      "▁Initially": 7992,
      "▁Charan": 7993,
      "▁attackers": 7994,
      "ampur": 7995,
      "▁Acts": 7996,
      "▁mini": 7997,
      "▁Lankan": 7998,
      "▁riding": 7999,
      "▁adorable": 8000,
      "▁cleared": 8001,
      "▁sorts": 8002,
      "▁bags": 8003,
      "▁enquiry": 8004,
      "▁counting": 8005,
      "▁Mer": 8006,
      "▁phot": 8007,
      "▁instruments": 8008,
      "▁Kids": 8009,
      "▁Shikhar": 8010,
      "itable": 8011,
      "▁aer": 8012,
      "▁transformation": 8013,
      "▁describes": 8014,
      "▁grass": 8015,
      "hara": 8016,
      "▁legislative": 8017,
      "▁negotiations": 8018,
      "▁sanctions": 8019,
      "▁forum": 8020,
      "▁slic": 8021,
      "▁renowned": 8022,
      "▁ambulance": 8023,
      "▁coordination": 8024,
      "▁Secret": 8025,
      "▁Birth": 8026,
      "▁identification": 8027,
      "▁knee": 8028,
      "▁Standard": 8029,
      "▁speakers": 8030,
      "▁outdoor": 8031,
      "▁Sikkim": 8032,
      "▁unexpected": 8033,
      "▁hunger": 8034,
      "▁Bhuvneshwar": 8035,
      "▁Kabir": 8036,
      "▁Nigeria": 8037,
      "tes": 8038,
      "▁gen": 8039,
      "▁density": 8040,
      "ults": 8041,
      "aving": 8042,
      "▁copper": 8043,
      "▁employer": 8044,
      "▁arrests": 8045,
      "▁technological": 8046,
      "▁invitation": 8047,
      "VE": 8048,
      "▁fond": 8049,
      "▁elder": 8050,
      "▁heroine": 8051,
      "▁radical": 8052,
      "ural": 8053,
      "alling": 8054,
      "▁Gulf": 8055,
      "▁lips": 8056,
      "▁Dark": 8057,
      "▁genetic": 8058,
      "▁accessories": 8059,
      "ention": 8060,
      "▁bul": 8061,
      "oster": 8062,
      "▁congratulate": 8063,
      "hal": 8064,
      "▁110": 8065,
      "ding": 8066,
      "ream": 8067,
      "▁Ve": 8068,
      "▁Mann": 8069,
      "atively": 8070,
      "pm": 8071,
      "rist": 8072,
      "▁Palace": 8073,
      "iate": 8074,
      "▁Wales": 8075,
      "▁legendary": 8076,
      "▁boundaries": 8077,
      "▁fre": 8078,
      "▁Karachi": 8079,
      "▁disadvant": 8080,
      "ipation": 8081,
      "how": 8082,
      "ulates": 8083,
      "▁fewer": 8084,
      "▁Flipkart": 8085,
      "▁lift": 8086,
      "ayan": 8087,
      "▁Success": 8088,
      "AI": 8089,
      "▁Ambassador": 8090,
      "▁sworn": 8091,
      "▁heav": 8092,
      "urt": 8093,
      "▁SIT": 8094,
      "ience": 8095,
      "rows": 8096,
      "met": 8097,
      "EN": 8098,
      "▁Lalu": 8099,
      "▁BM": 8100,
      "▁occurring": 8101,
      "▁collision": 8102,
      "▁deadly": 8103,
      "▁bell": 8104,
      "▁households": 8105,
      "▁fiscal": 8106,
      "▁physics": 8107,
      "▁Royals": 8108,
      "▁interrogation": 8109,
      "ella": 8110,
      "▁Ur": 8111,
      "▁ours": 8112,
      "▁responses": 8113,
      "▁Berlin": 8114,
      "▁effectiveness": 8115,
      "26": 8116,
      "▁calculated": 8117,
      "-10": 8118,
      "nam": 8119,
      "▁Employees": 8120,
      "▁Xi": 8121,
      "▁operator": 8122,
      "enn": 8123,
      "▁cos": 8124,
      "▁amendment": 8125,
      "▁Animals": 8126,
      "▁Gehlot": 8127,
      "▁Summer": 8128,
      "▁Pain": 8129,
      "ridge": 8130,
      "ipe": 8131,
      "▁desktop": 8132,
      "▁comb": 8133,
      "▁strikes": 8134,
      "▁vacant": 8135,
      "▁hyp": 8136,
      "▁interim": 8137,
      "ression": 8138,
      "▁Imp": 8139,
      "▁clarified": 8140,
      "rent": 8141,
      "▁handled": 8142,
      "▁Hassan": 8143,
      "ano": 8144,
      "▁railways": 8145,
      "▁directing": 8146,
      "cess": 8147,
      "▁12-": 8148,
      "▁Portugal": 8149,
      "uming": 8150,
      "▁curious": 8151,
      "hit": 8152,
      "ocation": 8153,
      "▁capability": 8154,
      "stand": 8155,
      "inc": 8156,
      "▁cricketers": 8157,
      "▁ple": 8158,
      "▁touched": 8159,
      "▁allegation": 8160,
      "▁cooperate": 8161,
      "▁protects": 8162,
      "▁Dravid": 8163,
      "▁driven": 8164,
      "hai": 8165,
      "▁Eid": 8166,
      "▁greetings": 8167,
      "▁fascinating": 8168,
      "rier": 8169,
      "▁Commonwealth": 8170,
      "▁consciousness": 8171,
      "▁tenure": 8172,
      "▁critics": 8173,
      "▁hes": 8174,
      "rons": 8175,
      "▁Naz": 8176,
      "▁Noida": 8177,
      "▁entity": 8178,
      "▁tail": 8179,
      "▁stops": 8180,
      "▁Pranab": 8181,
      "▁eternal": 8182,
      "▁waited": 8183,
      "▁3,000": 8184,
      "▁Train": 8185,
      "▁1948": 8186,
      "▁·": 8187,
      "▁batsmen": 8188,
      "▁identical": 8189,
      "▁Raju": 8190,
      "▁wars": 8191,
      "aria": 8192,
      "▁Roshan": 8193,
      "▁convinced": 8194,
      "inner": 8195,
      "▁urgent": 8196,
      "▁adds": 8197,
      "▁consequence": 8198,
      "▁FC": 8199,
      "▁MC": 8200,
      "▁enthusiasm": 8201,
      "▁eaten": 8202,
      "km": 8203,
      "▁Bec": 8204,
      "▁eas": 8205,
      "▁protestors": 8206,
      "▁clock": 8207,
      "▁deficiency": 8208,
      "▁Chen": 8209,
      "▁preventing": 8210,
      "arge": 8211,
      "▁Movement": 8212,
      "▁container": 8213,
      "▁stranded": 8214,
      "▁Rajk": 8215,
      ",500": 8216,
      "▁slight": 8217,
      "▁Highway": 8218,
      "▁trapped": 8219,
      "▁Republican": 8220,
      "▁Vladimir": 8221,
      "▁Survey": 8222,
      "berg": 8223,
      "▁Production": 8224,
      "▁Norway": 8225,
      "▁revised": 8226,
      "▁bold": 8227,
      "▁Ident": 8228,
      "▁Emergency": 8229,
      "▁Celeb": 8230,
      "▁Quality": 8231,
      "▁gaming": 8232,
      "▁Manj": 8233,
      "▁massage": 8234,
      "ife": 8235,
      "▁PP": 8236,
      "▁Realme": 8237,
      "▁shed": 8238,
      "▁bay": 8239,
      "ugs": 8240,
      "▁moisture": 8241,
      "ritis": 8242,
      "▁Fortunately": 8243,
      "▁eighth": 8244,
      "▁landing": 8245,
      "▁optim": 8246,
      "▁Alliance": 8247,
      "▁Shraddha": 8248,
      "▁signing": 8249,
      "▁96": 8250,
      "▁beliefs": 8251,
      "▁enforcement": 8252,
      "▁breaks": 8253,
      "â": 8254,
      "ux": 8255,
      "oma": 8256,
      "istry": 8257,
      "▁Review": 8258,
      "▁regards": 8259,
      "inth": 8260,
      "▁uniform": 8261,
      "▁Ronaldo": 8262,
      "hips": 8263,
      "▁Spe": 8264,
      "ova": 8265,
      "▁approaches": 8266,
      "arily": 8267,
      "ott": 8268,
      "ales": 8269,
      "▁File": 8270,
      "▁Consumer": 8271,
      "▁monitored": 8272,
      "▁Sony": 8273,
      "wala": 8274,
      "▁preserve": 8275,
      "BC": 8276,
      "▁Justices": 8277,
      "▁hoped": 8278,
      "▁studio": 8279,
      "isk": 8280,
      "▁filling": 8281,
      "▁blocks": 8282,
      "▁cas": 8283,
      "▁outer": 8284,
      "▁asserted": 8285,
      "ona": 8286,
      "▁accounting": 8287,
      "▁pit": 8288,
      "▁Java": 8289,
      "▁Register": 8290,
      "idd": 8291,
      "▁Cy": 8292,
      "▁NTR": 8293,
      "▁hosts": 8294,
      "▁priest": 8295,
      "▁spaces": 8296,
      "▁outrage": 8297,
      "▁imagination": 8298,
      "ild": 8299,
      "▁fatigue": 8300,
      "▁NI": 8301,
      "▁Till": 8302,
      "▁clubs": 8303,
      "▁Link": 8304,
      "▁Haasan": 8305,
      "▁unc": 8306,
      "▁genuine": 8307,
      "▁Surat": 8308,
      "▁lecture": 8309,
      "▁−": 8310,
      "▁JNU": 8311,
      "▁da": 8312,
      "▁PAN": 8313,
      "atch": 8314,
      "aging": 8315,
      "▁staged": 8316,
      "iving": 8317,
      "▁kiss": 8318,
      "▁fathers": 8319,
      "▁Poll": 8320,
      "▁UNESCO": 8321,
      "▁Rishi": 8322,
      "NA": 8323,
      "▁invested": 8324,
      "▁Buddhist": 8325,
      "▁associate": 8326,
      "▁DGP": 8327,
      "▁evident": 8328,
      "uting": 8329,
      "▁tensions": 8330,
      "▁allies": 8331,
      "▁carrier": 8332,
      "▁Phone": 8333,
      "▁Bra": 8334,
      "▁Hand": 8335,
      "▁Stop": 8336,
      "▁hat": 8337,
      "ief": 8338,
      "▁Nor": 8339,
      "▁irrigation": 8340,
      "▁Independent": 8341,
      "▁Nov": 8342,
      "▁holders": 8343,
      "▁advise": 8344,
      "▁literally": 8345,
      "▁tobacco": 8346,
      "▁lands": 8347,
      "Ch": 8348,
      "▁cake": 8349,
      "▁eagerly": 8350,
      "▁kit": 8351,
      "▁wanting": 8352,
      "▁Lab": 8353,
      "▁india": 8354,
      "RP": 8355,
      "▁Truth": 8356,
      "▁neutral": 8357,
      "▁prisoners": 8358,
      "▁incorporated": 8359,
      "▁Han": 8360,
      "▁economics": 8361,
      "▁Hebrew": 8362,
      "▁flooded": 8363,
      "lu": 8364,
      "▁Cell": 8365,
      "▁publicly": 8366,
      "▁bas": 8367,
      "employ": 8368,
      "DS": 8369,
      "▁buried": 8370,
      "aling": 8371,
      "▁scores": 8372,
      "regn": 8373,
      "▁Sher": 8374,
      "▁thereby": 8375,
      "▁Low": 8376,
      "▁BSNL": 8377,
      "▁estimate": 8378,
      "▁retain": 8379,
      "▁Jordan": 8380,
      "rup": 8381,
      "▁telecom": 8382,
      "▁applicant": 8383,
      "▁lif": 8384,
      "▁Ju": 8385,
      "▁enhanced": 8386,
      "▁transparency": 8387,
      "▁Infrastructure": 8388,
      "▁Portuguese": 8389,
      "▁Sydney": 8390,
      "▁sle": 8391,
      "▁claiming": 8392,
      "▁suggestion": 8393,
      "▁est": 8394,
      "uls": 8395,
      "▁arises": 8396,
      "▁Selection": 8397,
      "▁sung": 8398,
      "▁Beat": 8399,
      "▁prep": 8400,
      "VP": 8401,
      "iff": 8402,
      "ential": 8403,
      "▁expanding": 8404,
      "▁Akbar": 8405,
      "▁Shivraj": 8406,
      "side": 8407,
      "▁Prior": 8408,
      "▁expertise": 8409,
      "▁Navjot": 8410,
      "▁observation": 8411,
      "PA": 8412,
      "▁6-": 8413,
      "▁compound": 8414,
      "▁outcomes": 8415,
      "▁alarm": 8416,
      "▁kings": 8417,
      "▁biological": 8418,
      "▁Honda": 8419,
      "clock": 8420,
      "▁Chouhan": 8421,
      "▁posting": 8422,
      "▁Village": 8423,
      "▁IMD": 8424,
      "▁estimates": 8425,
      "▁Jasprit": 8426,
      "▁elsewhere": 8427,
      "▁indigenous": 8428,
      "udi": 8429,
      "▁III": 8430,
      "▁DVD": 8431,
      "itch": 8432,
      "▁87": 8433,
      "▁forthcoming": 8434,
      "▁Solar": 8435,
      "▁belie": 8436,
      "▁hem": 8437,
      "▁isolation": 8438,
      "▁Nay": 8439,
      "anned": 8440,
      "▁Buddha": 8441,
      "▁compassion": 8442,
      "▁unprecedented": 8443,
      "▁Mang": 8444,
      "▁Shukla": 8445,
      "▁sciences": 8446,
      "▁theatres": 8447,
      "▁Gir": 8448,
      "▁2030": 8449,
      "▁10-": 8450,
      "otherapy": 8451,
      "▁Heritage": 8452,
      "▁Af": 8453,
      "▁settlement": 8454,
      "▁ren": 8455,
      "hold": 8456,
      "▁dri": 8457,
      "▁Indeed": 8458,
      "▁ster": 8459,
      "▁fil": 8460,
      "▁ranking": 8461,
      "▁consisting": 8462,
      "▁Details": 8463,
      "▁CN": 8464,
      "▁IPS": 8465,
      "izers": 8466,
      "unk": 8467,
      "ounded": 8468,
      "а": 8469,
      "▁Heat": 8470,
      "▁Mufti": 8471,
      "▁Prepar": 8472,
      "▁cloth": 8473,
      "▁highlight": 8474,
      "▁Large": 8475,
      "▁Supp": 8476,
      "▁RR": 8477,
      "▁preferred": 8478,
      "▁Alexander": 8479,
      "▁disputes": 8480,
      "▁mere": 8481,
      "▁critically": 8482,
      "▁liability": 8483,
      "▁toxic": 8484,
      "▁mer": 8485,
      "▁Dutch": 8486,
      "ashes": 8487,
      "▁checking": 8488,
      "IA": 8489,
      "rel": 8490,
      "▁Georgia": 8491,
      "than": 8492,
      "▁adventure": 8493,
      "▁phrase": 8494,
      "▁1986": 8495,
      "iful": 8496,
      "▁migrant": 8497,
      "▁complain": 8498,
      "▁Similar": 8499,
      "▁gotten": 8500,
      "▁Os": 8501,
      "▁Vij": 8502,
      "tha": 8503,
      "▁taxi": 8504,
      "▁Highways": 8505,
      "▁Int": 8506,
      "box": 8507,
      "▁NDRF": 8508,
      "▁Gop": 8509,
      "▁Electric": 8510,
      "▁collective": 8511,
      "words": 8512,
      "▁nationwide": 8513,
      "aks": 8514,
      "▁mus": 8515,
      "OM": 8516,
      "lay": 8517,
      "▁Anna": 8518,
      "▁Vardhan": 8519,
      "▁intest": 8520,
      "▁Sushil": 8521,
      "iter": 8522,
      "▁probing": 8523,
      "oz": 8524,
      "▁Kat": 8525,
      "ule": 8526,
      "▁Prabhas": 8527,
      "▁convenience": 8528,
      "ories": 8529,
      "▁fishermen": 8530,
      "▁thorough": 8531,
      "▁medicinal": 8532,
      "▁precisely": 8533,
      "mes": 8534,
      "OW": 8535,
      "▁Girls": 8536,
      "▁Ham": 8537,
      "▁casino": 8538,
      "▁purchases": 8539,
      "wad": 8540,
      "▁faithful": 8541,
      "▁tracking": 8542,
      "▁Kir": 8543,
      "ech": 8544,
      "▁jewellery": 8545,
      "▁subscription": 8546,
      "▁tor": 8547,
      "▁responding": 8548,
      "▁occup": 8549,
      "▁conscious": 8550,
      "▁Sudden": 8551,
      "instein": 8552,
      "▁Library": 8553,
      "▁virtually": 8554,
      "light": 8555,
      "▁grave": 8556,
      "▁inex": 8557,
      "▁thirty": 8558,
      "▁presents": 8559,
      "wat": 8560,
      "▁variable": 8561,
      "र": 8562,
      "hour": 8563,
      "lim": 8564,
      "akers": 8565,
      "ius": 8566,
      "▁Pratap": 8567,
      "▁sunlight": 8568,
      "▁Coast": 8569,
      "▁Rani": 8570,
      "▁odd": 8571,
      "inter": 8572,
      "ior": 8573,
      "▁Tam": 8574,
      "▁realistic": 8575,
      "▁lasts": 8576,
      "▁Tir": 8577,
      "onda": 8578,
      "▁wondering": 8579,
      "▁deposits": 8580,
      "▁Es": 8581,
      "▁Boris": 8582,
      "▁OnePlus": 8583,
      "▁pat": 8584,
      "▁Housing": 8585,
      "▁256": 8586,
      "una": 8587,
      "▁attractions": 8588,
      "▁Cross": 8589,
      "▁gentle": 8590,
      "▁burned": 8591,
      "▁closing": 8592,
[...]
